_ d
_ l
e s
e n
_ p
o n
_ @
_d e
_ c
_ ,
_ s
a n
r e
_ a
t i
_ .
o u
q u
i s
e r
_l a
i n
en t
_ e
a r
_ m
l e
i t
u n
_l e
o r
_ f
_e t
_ t
u r
_ en
i l
o m
ti on
_ r
t e
_ à
_l es
_l '
_ n
qu e
_d es
_ un
_p ar
es t
m ent
a l
u s
_p r
_d u
_ v
an t
ou r
_ é
i e
_ b
_a u
r a
m e
an s
_ g
on t
_ qu
c e
_d '
a u
_ est
_c om
e l
a tion
é s
a s
r i
v e
o l
a t
é e
_d ans
_d é
n e
c h
_c on
s i
_ re
_un e
r es
c i
_p l
s e
_ j
a i
_ il
a g
a is
d e
_s e
_p our
_c h
o i
m p
t é
l i
_qu i
_c e
_ h
o p
_ in
_r é
_ que
r an
a it
a in
_s ur
a le
l es
d i
_pl us
er s
o s
u x
o is
u l
_pr o
a c
t u
é r
_s u
_t r
p r
a b
è re
t re
un e
f f
ur s
_ ou
_s on
_com m
_ :
or t
u t
i g
it é
è s
en d
_d i
a m
qu es
ve c
_a vec
ou v
_ an
_s ont
a p
_ o
é es
m i
il le
v i
ai re
t r
l le
el le
o t
_p e
_ »
i que
is t
o g
_ «
u e
c tion
p e
_é t
it e
i c
i on
_par ti
_s a
g e
u i
_p as
t te
_e x
ag e
_f ran
c es
_n om
é n
_ i
or s
au x
in e
_com p
_t ou
on n
_l ’
é t
ent re
u is
_m o
_f or
_con s
_a l
i v
_n e
t er
b re
an d
p ar
ch e
o c
_m ar
_com me
r é
ti que
_t ra
u re
e t
_m ais
_au x
_a v
er t
en s
i r
on s
en ce
o it
_p re
or d
_a c
_de ux
é ri
e mp
_qu '
_s ou
_ce tte
_a r
_pre mi
_s '
_l' é
on d
in s
_t er
an ce
_s es
_a p
_e lle
_c ont
t es
is e
m es
é ra
_c ar
_s i
oi re
_ entre
u b
d u
ation s
m b
t res
a ti
oi r
_g ran
a y
_é té
_ %
r it
_f ait
_p er
i en
ale ment
a d
p h
c u
il l
_d ’
ment s
_d' un
_c l
te ur
ti n
a ce
_comm une
ê me
pr ès
_dé c
_j e
_d is
i d
tu re
_an n
_pr é
ant s
si on
_d' une
our s
_g r
_f in
ar d
o y
n i
_l i
_s t
ci p
ou ve
_pr és
u m
t s
ê tre
_ ont
_m é
l é
an g
_ ;
_ré g
_m on
a v
ai res
_c es
ti l
_s er
_é c
e x
è me
al es
_d ont
ain e
' est
_é g
_t h
_ on
ti f
_comm un
al is
_a in
_fran ç
_ain si
_le ur
n es
ol og
o ci
_sou s
_a près
_a us
_pe u
_ or
_nom bre
p o
c t
_ es
_ y
m in
le ment
_l ui
en ne
er re
_p h
_a s
_m ême
ub li
_al ors
_r és
é g
_i mp
_p uis
_l ors
tion s
_m a
_g én
on ne
_g u
_p o
_aus si
_c el
tr u
_pr in
o b
_di ff
as s
an te
_franç ais
_s y
te ment
d es
_ ti
_p ol
_pr op
c o
_in ter
_c ol
at s
ou p
end ant
ti tu
_t emp
t t
i m
_l' in
e au
_f il
è res
v en
é d
ent e
ai ent
u til
_a d
_re pr
is te
_pe ut
_m il
_ch e
_ être
_j us
_fran ce
_ég alement
it u
al l
ab le
_qu' il
p ort
or m
f in
té r
_a m
_tra v
_p ers
p uis
i ques
_v ille
s t
ie urs
_se c
_o ù
_m e
_tr ois
_p os
ain s
_parti e
_p ay
_de puis
ur es
_c or
_r es
_ch a
t en
ouv er
_c r
_re c
é m
_o b
te urs
it és
_c ert
ig ne
util is
is s
ie u
_r en
_pay s
_tr ès
_gran d
_ap p
b le
_ w
_ét ait
on g
_tr ans
_for m
_l' ar
in t
_c 'est
_n ot
_plus ieurs
ig n
_c a
ou pe
ér ie
_p ubli
ra ph
_ k
_premi er
ti v
_s ol
au t
_l' h
_ex p
_v i
_rég ion
_t our
_de r
ent s
_c ré
_f ut
_c o
_s ain
ti s
_c our
v ent
qu '
_n '
_dé b
j et
_s oci
_r ap
_ z
an is
_m an
_m ont
ci en
_premi ère
_v ers
_pol i
l u
_e ff
_s é
on c
_per me
r on
_ann ées
_s el
_con f
_ch ar
el les
ag ne
_au t
_b as
_cont re
_s itu
_a b
l è
us e
_con c
_prin cip
_ac c
ag es
_s p
am ment
_su p
a re
og raph
ti ques
_j u
_dé p
_sel on
_p op
_pro du
v er
in g
_ utilis
ou s
_ré p
_con n
e c
_tou t
_p i
ol u
_der ni
_pop ul
_dé par
_n é
u es
ar i
_n ouv
ur op
_m us
_r om
_n ation
_b ien
_il s
_pers onn
_é le
_m in
al ité
_l' an
_c ap
en ti
_b i
an de
_é v
v is
_diff ér
i re
_av ant
_d és
ain es
f i
_s c
_h ist
_n ord
v el
_gu erre
_s ans
or te
qu i
o de
_as s
_c ul
g l
_not amment
_l ong
is se
_ter rit
_l' un
o le
ag n
at ure
as se
_t y
ction s
_ ans
_b r
en se
f ic
g es
_mo y
an c
_n i
_d onn
_s oit
l les
_jus qu'
ce p
_o c
m é
it s
_su d
il les
ri c
on om
_p éri
vi ent
ie ux
ais on
_su iv
_c in
al i
_di re
_au tres
_que l
_d' au
_f e
_ │
si tion
ri b
_sain t
_gran de
_f on
_c as
or i
co re
ne ment
ais s
vel op
_r ou
_n ouve
_c an
_m al
_d om
er v
_in s
ch es
_re l
_m at
t h
a ille
_c li
_dé velop
_repr és
_d ur
it es
_temp s
_in f
_par is
_es p
_f r
ch er
_f ond
_imp ort
_j our
_a g
a te
_m ort
in es
a î
_f ois
_d r
c l
_a tt
_f er
_le urs
m is
ti ve
_en core
v es
_pas s
_ap par
_gr oupe
f ois
_su c
è ne
op h
_j ou
mb le
end re
_l' ex
_p ort
ouv ent
_pe ti
_de v
_r i
_par t
olog ie
_cons titu
cu p
_mo ins
n ée
_dépar tement
_v ie
li g
_cel ui
_p ouv
é té
mp l
_pro f
_qu at
_for me
_tou te
_f a
m ée
_e urop
ant es
_v er
_c elle
_o ff
_déb ut
_d onc
_tou s
_l oc
_c at
_ser vi
i ème
_fil m
di tion
t a
el s
o se
r ent
_mo d
éra tion
œ u
v ers
_f am
v re
_ op
_parti cu
_cons tru
_b l
m bre
_n o
_r oy
ê te
_pl ace
_poli tique
_ré f
_th é
_ ent
_mon de
_n on
_je an
a tique
er n
_n ature
_l ég
_parti r
d é
_z on
re r
_dé f
_a ff
_con si
elle ment
g anis
_d ou
_ex emp
_c ent
_su ite
us es
_ré alis
_l ang
_cli m
ér al
_app el
_h om
i x
_f aire
_c ours
_l' ac
ô le
_dé m
_av ait
ou t
il i
_p endant
n ent
_g ouver
ét at
_prés id
ent es
ch é
_m et
_d' é
_h ab
_l' a
_v is
t ra
ab les
_particu li
_é p
g r
_représ ent
olu tion
_m en
p endant
_c ô
_consi d
_in di
_pré c
_ét ats
_r oi
_f l
éri c
_r est
_péri ode
a teur
_quel ques
