e s
e n
o n
d e
l e
a n
r e
l a
t i
o u
q u
i s
e r
i n
en t
a r
e t
i t
u n
a u
l es
o r
t e
u r
i l
o m
ti on
p r
d es
p ar
l '
qu e
s e
d u
t r
c e
a l
c h
m ent
es t
s i
an t
ou r
c on
un e
m e
d é
i e
n e
d '
an s
c om
r é
r a
l u
v e
t a
m a
l i
s on
d i
p a
t é
d ans
c i
p o
p e
r i
é e
s a
qu i
p our
a tion
l le
o i
s u
r es
pr o
g e
t re
t u
é s
c a
v i
m p
s ur
f a
p lu
r an
t er
p u
au x
v er
a c
l o
c o
m i
u x
c es
n é
a le
i re
m o
è re
c u
com m
ur s
on t
m é
plu s
it é
r o
è s
f or
qu es
in e
f f
a t
e x
a ve
u s
il le
ave c
in s
a v
son t
a s
ch e
s o
o is
g u
en d
p h
é ta
e lle
p er
p é
par ti
it e
a b
a p
l é
n a
u t
n om
or t
pa s
n i
s er
qu '
f ran
s es
f i
m ar
t ou
t h
c tion
s ou
g i
v o
t es
b re
is e
s é
si on
m on
or s
g é
l ’
é té
ma is
l on
ent re
tr a
c et
l an
p re
f in
t s
m es
m an
d is
com me
b le
ti que
pr é
n o
ou ve
c ar
en ce
l' é
de ux
g ne
pu is
tu re
cet te
e l
a i
pre mi
a in
s '
m in
d on
r it
con s
j e
s si
tr i
p i
tr es
c ou
or i
b i
pr ès
r ou
oi re
is t
c er
tion s
g ran
g ra
l is
en s
lu i
or d
in t
an ce
a it
a g
fa it
c é
oi r
c our
r ie
a is
n es
b li
v ent
d ’
ver s
un i
er s
a d
ment s
te ur
m et
d' un
o c
comm une
ê me
en ne
y s
é g
pr és
a m
j our
on s
ant s
d' une
le ur
f on
de r
v en
t o
g es
é r
t our
n u
il s
t en
p or
a ire
m u
c la
ê tre
a près
al is
p la
m ême
le ment
po s
è me
i r
te mp
d ont
ale ment
i m
t ant
sou s
in ter
tr u
e ur
' est
n ouve
l s
fran ç
p ort
c or
ar d
e mp
ain si
p end
prés ent
é es
m il
b a
pe u
nom bre
né es
n ation
en ti
ou v
ch a
o b
comm un
c ré
al ors
v is
com p
so ci
ti tu
r on
b u
pu bli
l ie
h u
si e
i que
l ors
i mp
d o
cu l
u ti
m b
g n
fran ce
er re
pr in
te ment
au ssi
di ff
f ois
it u
v ille
m is
an g
g ie
au tres
ation s
d a
r en
gé né
c t
i v
ti f
ré gi
è res
d ent
j us
o ù
h ist
ti n
in es
a ge
pe ut
éta it
ég alement
an te
ti ques
b e
al i
au t
t y
parti e
l les
ti v
c ent
tou t
n ée
r u
tr ois
con tre
g rou
pend ant
u re
de puis
j et
ti ve
pro du
j u
v é
en se
l è
qu' il
te urs
c ri
an d
cer ta
e ff
an ci
uti lis
b er
l' in
p on
tr o
it és
prin ci
gran d
tr ès
gu e
que l
s itu
l' ar
sie urs
c 'est
la tion
plu sieurs
c an
r om
gra ph
ou ver
n on
av ant
ch ar
al le
c ation
premi er
po si
per son
an nées
re c
m ment
tr ans
f e
f ut
pr i
é le
n '
po li
pa ys
r is
eur o
su ite
premi ère
p es
ur es
pé ri
i on
is s
ra tion
it s
s ta
a les
pr es
i res
per met
b les
b as
a mé
th é
ti s
g a
an is
se u
ne ment
f il
j ou
ch er
c in
s y
temp s
v re
dé b
pr end
no ta
se lon
vi ent
o l
dé par
o p
v ie
der ni
po pu
t ent
u e
f é
m er
is te
bi en
s ans
v a
j o
v al
o lo
le urs
ai res
cour s
imp ort
ca s
mo ins
for me
h om
is on
ap pe
f er
gu erre
régi on
vo lu
c rit
al ité
diff ér
n er
ar i
d ou
franç ais
v il
grou pe
cons tru
l ée
r oi
o ff
d ro
d re
tr av
g r
c ie
or g
nota mment
d om
ter rit
qu a
m en
o de
re r
el les
ori g
o s
éta t
c li
mo y
au tre
t al
r al
i ent
min is
l it
p pe
so it
jus qu'
sa int
ce p
la is
v in
c lu
s or
su iv
ch es
l' a
n ord
h ab
s se
co re
posi tion
v es
gran de
c ro
ve lo
d ur
té s
l in
p it
m ée
t on
g er
s in
an née
m ble
ction s
fa ire
dé velo
ma t
ex p
c al
par is
pla ce
r ent
a ine
re présent
ap par
m ort
hist oire
par t
cons titu
b é
se con
z on
ce lle
ch an
dépar tement
c le
en core
g o
je an
jour s
gi que
t an
oc cu
pr is
ser vi
parti cu
ent s
pe ti
av oir
de v
è ne
av ait
su c
é tu
ro y
la r
h é
co l
p ouv
ce lui
ex emp
l ou
na ture
tou te
for ma
d ie
ch é
fil m
it es
don c
tou s
a ille
i ème
pré si
di tion
su s
en vi
s ys
ant es
in té
r est
œ u
poli tique
déb ut
amé ri
g ar
m bre
es pa
l y
ê te
tr ouve
ch i
parti r
mon de
lie u
n ent
a y
ré alis
ai ent
ra p
s tr
dé c
in di
la ire
cul ture
org anis
ô le
ra it
con si
com pa
con na
po se
eff et
a ise
b on
ré s
u se
n or
envi ron
d it
b il
b our
di re
g ouver
c ô
l oi
p lan
e au
re mp
d' é
p ou
graph ie
su d
h i
particu li
éta ts
en ces
mé di
c ité
cou p
b ar
sys t
nouve lle
p l
si g
nouve au
ré e
con om
péri ode
quel ques
m ille
v ari
b ou
m al
l' ex
qu ’
us es
con se
po que
c entre
n 'est
certa ins
fa ce
a ff
lon g
con nu
ab le
exemp le
l ise
b o
f es
d' autres
c r
car ac
nation al
sion s
popu lation
te l
c ès
franç aise
hist ori
lé g
qua tre
j a
il i
ar ti
con tr
b an
d s
su l
hab it
princi pa
sou vent
commun es
f u
ce pendant
tri bu
l' ac
s pé
un is
b at
r ê
re li
c s
volu tion
m or
sa ge
man i
mu si
d ès
anci en
h au
v oir
orig ine
té e
ter re
géné ra
ti ent
i ma
fon ction
se ment
i ci
i i
pe c
mar qu
î t
comp te
améri ca
nombre ux
cha mp
territ oire
tr ou
é tant
c it
as se
euro pé
e c
é qui
x e
e m
hu i
aille urs
oi res
géné ral
é ri
le t
res pon
de vient
c k
ge ment
pa tion
c ur
rie ur
por te
ad minis
consi dé
te ch
soci été
si è
dé fin
le r
comm er
i ques
be au
spé ci
te au
for mu
li gne
a f
co le
ni ve
ent e
m ont
ère ment
é conom
dur ant
éta ient
se p
d at
v oi
peu vent
tif s
li m
au g
an ti
b or
te x
pro b
dé cou
s ant
vo y
en f
pr ise
nation ale
f r
elle ment
a il
t end
g ré
po sé
fa mille
ser v
syst ème
é ra
b ri
mar i
c ant
d' ar
m ise
ay ant
i gne
dévelo ppe
th e
ti en
pouv oir
uni vers
mon di
prési dent
s ci
s our
iss ance
ac tion
b el
ti e
p le
ag ri
as soci
cha que
con f
li que
ense mble
p s
che z
in te
dé e
derni er
c ture
f ils
gouver nement
re la
ri ère
p è
c au
pi erre
alle man
de ven
jusqu' à
ent es
z e
m ie
m me
ti tre
it aire
pro jet
is me
gu es
p al
l ant
b r
s t
a fin
parti ci
b al
pro che
è de
t ard
é crit
in f
ch â
con cer
ac tu
l' un
ou est
ac tiv
p au
publi que
o pé
su p
do it
h a
il les
dé f
pr a
res te
vis ion
t est
trav ail
v ale
nive au
vil la
au jour
po ssi
ur ent
v it
b es
h e
c y
ma in
p ère
se au
po int
mo is
sé rie
états unis
g au
mil li
forma tion
g en
s c
ta ille
î tre
ab les
ca pit
cin q
par mi
euro pe
so l
pres sion
ô t
ne lle
t te
d ra
aut or
c ra
di rec
v res
tive ment
mis sion
off i
occu pation
p li
tou jours
conse il
ni que
ba se
en nes
â ge
m ouve
cu e
h y
j or
fi cation
ré f
c teur
ur b
ne l
co lle
qu é
commun au
tou tes
moy enne
on ne
clu b
ty pe
en suite
cli mat
rap port
e ux
d è
o graphie
ci r
t om
r us
dé pend
qu' elle
co lon
r è
tiv es
r ôle
che f
ph y
ci dent
d' hui
formu la
ou s
m uni
s s
s enti
de ment
r end
s au
ma jor
servi ce
éta b
œu vre
t aux
produ ction
si gn
l or
situ ée
s ens
formula _
lo gie
so ls
re g
ce ux
nombre uses
su b
n ie
d an
aujour d'hui
carac té
o t
at te
de man
lan d
éle c
j ac
lou is
s ort
ti ère
r y
mil ie
in i
th è
exp lo
i ble
ord re
al bu
ra ison
gr â
roy au
grand s
il o
l'é g
albu m
n at
p en
dé mo
ber t
développe ment
secon d
si x
d enti
un es
publi c
cant on
for t
grâ ce
s ’
com pos
in g
par fois
î le
hom me
n ant
en nent
au c
b res
zon es
certa ines
mb res
ta ble
du it
ter min
ob jet
es pè
té lé
olo gie
ç on
re cher
si mp
na ge
ter me
b lan
c is
ser a
temp éra
re tour
du str
con tra
ce la
dustr ie
f o
que lle
l’ é
i gn
ri que
s ite
don ne
v an
secon de
cri p
person nes
en g
pris es
i es
vo it
c ée
l ent
premi ers
s ent
d’ un
je u
f ré
re ç
at ta
con ti
ra pi
eff ec
ro s
ori ent
lan gue
l' année
phy si
cor respon
c re
co les
qu ant
s tru
pro pri
deux ième
tra dition
vi ct
habit ants
vo l
constru ction
f our
fa is
i tion
s an
ca le
lis te
ar ch
suc cès
ce l
e u
moy en
m oi
ex iste
me mbres
is se
ma s
d’ une
ten u
ta tion
v ue
pro fes
uni on
ar ri
m ine
appe l
d en
h ô
différ entes
é lé
ré seau
v u
conti nu
l' état
an ne
pa tri
b â
offi cie
v ée
cor ps
lo c
mondi ale
m mes
trans port
s om
qu er
s' est
pri x
dro it
ag it
di o
royau me
prend re
di ri
é tr
su pé
g nes
muni ci
si ve
remp la
cla ssi
sa ison
nom mé
cep tion
châ teau
b ois
beau coup
né ces
compa gn
vo ie
dé cla
u m
th o
dis tin
cré ation
b rit
di tions
bour g
zon e
f s
la quelle
tr on
emp ire
té rie
toute fois
dé ci
histori que
l' ab
é lu
hom mes
vi er
ra ge
ai r
al ie
qu it
in ts
h en
particuli er
è te
dévelo p
pro gra
caracté ris
se in
pr iv
ter ra
or ie
b ut
f ont
dé j
déj à
m us
è tres
cin é
ang lais
ti me
seu l
sig ni
tr ouv
al li
bil ité
b ra
re f
lo is
n et
ré volution
anci enne
comm an
la ires
me ille
jour n
char les
is tes
j ap
ré sul
lors que
brit an
g ée
don nées
’ est
con fi
mi que
l'é poque
différ ents
tra vers
h an
té ra
au rait
ne u
t or
présent e
è nes
sur tout
com bat
ent ra
l à
jap on
g ent
an ces
d' a
mo der
pr om
mais on
communau té
réf ér
ver sion
aug ment
tr é
pas se
an non
ins tal
h er
v ain
so lu
ni ques
n' a
g rec
ins titu
m au
l'ég lise
f ie
villa ge
ang le
pro vin
ph o
r ant
li vre
b us
étu des
d y
ain es
au tour
di fi
dev ant
tan dis
l' on
mu l
en ant
mouve ment
ré publique
û t
ta gne
ca pa
x i
je une
olo gique
fi que
ver se
musi que
t ur
peti t
la s
c ations
ab ord
pos s
qu ent
jou e
ap pli
l' histoire
généra lement
enf ants
f it
c les
re ven
gi ques
rom an
ma ire
ru e
plu part
s al
su ff
di x
ti l
fe u
ph on
in dre
je unes
t ête
s' é
ten ir
fé dé
tra ite
c ord
so ph
h o
a teur
commer ci
ce lles
mal gré
produ it
ri er
sep t
adminis tr
m y
tex te
seu lement
sy n
possi ble
trois ième
ré gu
œ ur
il li
cli ma
qu and
du s
f urent
ca p
fon d
alis te
pro pre
mani ère
ois e
l' est
se igne
ma gne
ca dre
utilis é
graph ique
v or
mo dè
pi è
qu arti
ar tis
ac cue
europé enne
urb anis
en fin
f ra
dom in
vil les
lit téra
ré si
for ê
s pec
sta tu
gran des
g res
es senti
ag es
te lle
milie u
étab lis
s oi
h on
ter res
g t
ch ine
î ne
la bor
je ux
don né
con sé
trav aux
t ôt
in dustrie
re ur
dire ction
tra it
inf lu
gu er
v ê
se ur
lan ce
k e
d ite
an al
uni que
organis ation
chan ge
univers ité
d res
ma la
bâ ti
sta tion
t ures
l'ar mée
titu de
cô té
suiv ante
l en
hu it
économ ique
c teurs
com pé
prés ence
h n
correspon d
par a
champ ion
p ont
da te
for mes
reg is
import ant
ti ers
me ur
el s
is ation
con ser
cau se
ph é
m pa
di vers
ma i
mé tro
derni ère
d' in
te ls
appe lé
é poque
t ère
m om
rê t
éle ctions
sa ire
tempéra ture
l' au
p ie
ri es
su per
met tre
ven tion
minis tre
principa lement
m ère
crip tion
siè ge
ch am
administr ation
physi que
décou ver
ins t
reli gie
h ar
je c
cla sse
ba taille
an im
is su
premi ères
c end
b in
g no
permet tant
mil itaire
d ence
celui ci
qu ali
mon tre
as s
ciné ma
espè ces
su i
alle magne
rom e
import ante
comm ence
ta it
ch o
an nu
u ve
qu' un
et c
si gne
adminis tra
p is
é volu
le ction
lè ve
sa it
ini ti
s ty
situ é
ch au
effec tu
ar t
s' agit
seu le
la tions
it aires
ch et
franç ois
se mble
nu mé
g al
résul ta
l'é qui
orig in
ta ire
comm uni
étu di
fin alement
c lé
mes ure
ti er
pré cé
le quel
su jet
d' or
territ oires
fi cie
qu' ils
i denti
ja mais
ré parti
ne w
é pou
è rent
nouve lles
ou tre
équi pe
ad ap
poss ède
pa re
mb o
j an
suc ces
alis ation
mo t
jo hn
sour ces
ren contre
rou te
h aut
ser ait
oc ca
du c
colle c
v ant
dom aine
ph ilo
mar que
l' ensemble
explo it
fe mmes
em pe
m ou
du e
philo soph
lle ment
l' île
remp or
fa çon
poli tiques
c és
f ille
recher che
li er
ma tion
situ ation
ga z
ta il
me mbre
n ous
jac ques
l' ouest
pro gres
person ne
s en
lo y
ca mpa
fe mme
iss ent
it ali
for ce
ra y
rie ure
espa ce
l om
deman de
car rière
d' être
pau l
car te
milli ons
p y
pho to
lo gique
peti te
opé ra
mar ie
sci enti
i dé
ner gie
dé sor
bé né
ty pes
ma ine
sc ène
rapi dement
suiv ant
ph ili
ra le
contr ôle
désor mais
comm en
it alie
die u
è mes
bi o
h ors
fa vor
pro té
il la
mom ent
import ance
na vi
t oi
ai de
ch ant
di ver
mon u
mat ch
servi ces
à dire
mo ine
av aient
re t
appar a
oc cident
fa ite
œu vres
activ ités
qu' une
mar s
té rieur
gau che
m it
p an
su it
é co
d' eau
fa ible
lui même
ad op
l' origine
b y
pro te
occa sion
â tre
ch ois
o it
is la
pa ge
ins tru
s ance
p aux
pra tique
l' es
é cu
y p
a jou
ra t
lé es
ense igne
cré é
ti é
fon da
mé té
agri coles
d' abord
empe reur
m ê
tri ce
m és
na ges
d am
k i
particuli èrement
vi ennent
fa bri
té es
li bé
ba y
né an
an e
u l
o f
ille t
ma je
capit ale
mi che
ven ir
d' état
inter national
c ’est
trou pes
en regis
mul ti
ca tho
re conna
a de
com posé
généra le
ma g
ais on
propri été
pr im
na ire
américa in
c l
a éri
ch in
défin i
ab lement
qu’ il
grou pes
néan moins
po logie
é che
ge or
j ur
int en
angle terre
compagn ie
activ ité
ch ans
pon y
dé ri
dro ite
la it
po ser
sy mbo
fin ale
n és
utilis ation
i x
tra ité
d' au
sour ce
film s
rè g
ens ité
re trouve
ré du
fa mil
aut om
al ités
ali ment
at s
do cu
asse mb
é ro
o bli
comm is
f ou
pa y
iss ant
ille r
o cé
g on
pré cis
régu li
profes sion
mo s
constitu tion
régi ons
vale ur
jusqu' en
l' at
è ve
ca té
cir cu
l' empire
at oire
a mi
connu e
ri ch
cou pe
ré pon
sty le
af fa
élé ments
sa cré
l' une
po l
f aut
oi vent
l'équi pe
don ner
fr ère
ré es
principa les
pré ci
cé lè
w e
n oir
re jo
po le
des t
v as
déc is
produ its
inter pr
opé ration
cons om
la tin
l'é cole
asse z
l' ordre
thè se
di vis
élec tri
d' al
aff ir
gu eur
pr it
régi me
auc un
posi tions
et te
se ments
ac cord
par c
l' université
h eur
i ons
th er
f au
mar ché
tro p
can di
indi vi
bal l
anal y
seigne ur
ca mp
pro vo
sa is
con du
nouve aux
stru cture
ch ac
vo lon
c en
contra ire
princi pal
pr ison
jus ti
associ ation
ten ant
i er
lim it
to tal
sive ment
as su
x es
che v
éta bli
thé orie
environ nement
l' ancien
caté g
patri moine
plu tôt
fi er
e mb
ex péri
quarti er
g és
déf ense
étr ang
com te
pro ces
respon sa
lie ux
ins pi
es ti
ob tient
pe in
dis par
l' al
ma tique
po ints
v ois
s co
major ité
démo cra
ris que
comp le
é ch
ta ge
l' en
por ter
fais ant
lan de
ob jec
dro its
v ra
lar ge
étu de
ac cep
for mé
dat s
l oire
ty pologie
modè le
res pec
progra mme
popu laire
to ta
sur face
exp li
for te
l' autre
ca les
tech nique
c'est àdire
e aux
britan nique
c tu
or k
océ an
des sin
lé on
d oc
fon de
at tribu
s tu
ju in
par lement
p les
cou ver
con tribu
port s
anci ens
voi x
v ou
p ant
princi paux
ga re
alleman d
déci de
ch ré
ob serv
l' eau
a ins
fu sion
vict oire
hen ri
référ ence
par ois
ges tion
temp or
de l
ra ges
u sage
auc une
tr ouver
f re
gen re
lan gues
bon ne
men tion
gr ès
b ord
les que
c te
ab an
pos te
i dée
g ène
thé âtre
entre prise
ur ba
hau te
cha pe
mé de
espa gno
con tin
co de
com prend
ar rê
ph e
ri vi
rou ge
p ée
y mp
espa gne
celle ci
su isse
voy age
ex ist
val lée
gé ographie
r il
annon ce
provin ce
lon gue
qu ence
é cri
cu le
diff ici
qu is
oc to
char ge
d in
lé ment
ti r
commer ce
ju illet
ct ures
appara ît
ron dis
ac tions
mus ée
ro bert
qu' en
fi ques
qu ête
f ron
pro x
c lo
con ditions
s te
phé nom
t ar
dé sign
nom s
campa gne
ques tion
ti ne
sé par
alis tes
rés ist
in fé
miche l
princi pe
inter nationale
di que
bi ographie
n ’
ri en
for ces
d ensité
ra c
octo bre
r ur
reç oit
g lom
ph a
phili ppe
dis tribu
rest au
cri tique
pas sé
champion nat
b ap
actu elle
dé termin
pro pos
as sa
te mbre
dé s
entre prises
di vision
es se
to pony
dé pu
gi on
v ites
mê mes
li ber
li bre
s tra
enseigne ment
emp loi
pas sage
sep tembre
dé ce
constru it
a teurs
fin anci
as sur
f lu
ré ser
u el
mé can
dépar t
g h
sé cur
vari ables
person nage
d' origine
bre tagne
té ri
ch u
gu re
ag glom
l és
p sy
la c
ard s
diri ge
tr an
bi bli
p ent
précé dent
ré g
no tre
i ca
ma ins
simp le
oi x
che min
mo de
tiv ité
ju i
affa ires
con cep
é ration
l t
dé tru
olo giques
considé ré
fi é
ac ces
d' at
prote ction
supé rieur
re lie
y ork
l' union
li gnes
moi tié
cla s
d' ex
per mis
ma ssi
forma tions
atte int
con serv
m ant
na issance
ord in
publi é
so le
do l
gar de
tech no
emp loy
lo ge
a te
re groupe
f is
deven u
i bles
dé rou
par al
pres que
d oivent
is tique
sor tie
f lo
pr on
sa ges
v age
ol ymp
vé rit
qu ée
rè gne
sant é
end re
h or
qu in
é ment
l' homme
urbanis me
ale x
ré us
moder ne
améri que
fes tiv
ég lise
dé mie
a mp
américa ine
utilis ée
a tive
ne ments
ô me
ra dio
cour ant
in clu
org an
au près
assemb lée
no s
an ge
mé es
des ti
ci en
m ur
nature l
essenti ellement
ve ur
on d
mo difi
p in
ang er
tr action
terra in
se cteur
déce mbre
représent e
dou ble
derni ers
d' après
épou se
tech niques
qu alité
ct or
v ais
ima ge
ent rée
vi ol
jan vier
it h
hi ver
c œur
journ al
f le
blan c
tr ac
mé m
a vi
agglom ération
b ac
dé crit
cu s
g ation
parti es
des sus
ma ge
in dépend
tri b
pa ti
fo ot
in tro
rela tions
amé li
bas sin
cé ré
il lu
pa lais
ser t
g re
con ta
cent rale
s por
ti enne
ar mée
du re
sou tien
re au
tent e
certa in
é tique
lo in
con dam
ar ts
dé tail
permet tent
g ro
pr enant
communi cation
fr ont
ch ris
dis pose
com position
se x
ad a
vites se
se mb
peti ts
re grou
é vo
sta de
pro pose
cré ée
li en
compé ti
bes o
n as
b en
vin gt
ti ères
lo gi
sécur ité
hy dro
prin ce
puis sance
chi ff
uti lise
commun ale
ar es
cé lé
cô te
ent our
ra ient
ci er
ex écu
cour t
ri r
cir cons
spec ta
ê tes
pro cé
inté rêt
rat ta
alis me
vi c
tex tes
fon ctions
pas ser
marqu ée
contin ent
di min
po ly
port ent
appe lée
forê ts
ne ls
peu ple
d or
res sort
lu mi
prob ablement
sui vi
constitu e
d ant
alle r
for mer
pour rait
a o
ra di
s ar
g in
qu' à
v ar
partici pe
mil itaires
trav aille
g ag
ex er
jusqu' au
réparti tion
é pis
l' av
l' inter
statu t
s ence
c ali
transport s
long temps
vi a
vê que
tra du
conse iller
ii i
b lie
ch oix
l' âge
he ure
arch ite
ch és
urba ine
is ant
and re
ban de
ap pu
carac tère
cham bre
l' an
person nages
lar gement
di en
fon dé
l' objet
situ e
cons ta
heur es
di pl
no ve
ma sse
pro fit
s' en
festiv al
si ble
ouv rage
en voy
direc tement
è tre
confi r
solu tion
cha îne
sa voir
av ril
h onne
f est
cel lu
ma tière
principa le
résulta ts
car tes
j on
chan gement
nor man
classi que
diver ses
n av
import ants
géné r
deven ir
ap pare
célè bre
l' empereur
trou vent
l ème
cla u
voi es
g ros
ç ant
néces saire
d' ac
amé na
comp lè
mani fest
so vi
lim ite
paral lè
se ine
sub s
ti mes
v oire
lan g
sou ver
port ant
rivi ère
ré publi
ne ur
traite ment
pr ennent
ven ant
gé es
pres se
jo se
des cend
a ch
h ér
con tempor
col lè
ma ines
fi g
ég yp
mari age
in tes
l' album
di ction
î les
métro pole
b ru
meur t
l' or
nove mbre
entra î
foot ball
pr ê
pro por
rondis sement
piè ces
sci ences
v rier
po i
o li
nu it
im ité
syst èmes
conna ît
lo cale
n us
pe ct
diff us
g ence
cour onne
ma thé
direc teur
meille ur
ur é
cr ise
g lo
lég isla
rela tivement
sé es
ca t
let tres
vale urs
pron on
è se
a tique
pa pe
américa ins
qu anti
dis pon
gé o
g la
mie ux
rend re
hau teur
b ais
ly on
com té
por tu
nature ls
ap parti
signi fi
por té
af rique
mé th
réalis é
cher che
p ens
z o
pe au
roi x
vi d
prox imité
fé vrier
cou leur
ten sion
lè mes
o des
s ites
ref us
ob tenir
é li
e d
ten ue
neu f
re marqu
chape lle
proces sus
al ter
c ède
op position
j ard
au teurs
pré f
certa ine
gé nie
inté res
joue urs
pi er
enf ant
é vé
di es
lon dres
ë l
fran co
r ite
off re
fi gure
ca d
économ ie
b ran
anim aux
be c
am en
alleman ds
l' occupation
pa ix
atta que
munici pal
k a
bel gique
ra ppe
d ité
o le
min i
agri culture
can ada
rus se
na ires
qu' on
objet s
siè cle
ma tiques
dis position
c ite
jus qu’
s' il
k il
du cation
utilis és
land ais
in titu
pu blie
ma térie
m ètres
qu et
son s
clima ts
docu ment
jose ph
pro test
roy al
ci vi
l' importance
utilis er
h ou
stru ctures
ao ût
con clu
g ènes
t ance
prob lèmes
b rés
té moi
stra té
derni ères
capa cité
super ficie
concer nant
b lo
b om
ter mes
h am
ber n
ê che
qu o
caractéris tiques
honne ur
cro is
rec ord
mon tré
ni es
lon gueur
espa ces
v è
dou te
préci pit
ma x
sé lection
import antes
ch ée
rempor te
mouve ments
quel que
des tin
person n
indivi du
analy se
influ ence
dé cor
f ru
exploit ation
l' as
ma ître
dur ée
se e
télé vision
ob ser
républi ca
mi ques
da me
pu l
soci ale
ri che
re lation
com ité
b ur
bay e
dis tri
v ac
ce ment
k o
ch ron
ch r
f lor
pra ti
te aux
forê t
ci le
qu oi
continu e
bibli o
hy po
pro ches
ci ens
cré er
s alle
se aux
prob lème
nation s
o x
h ol
pé n
exp lique
con duit
ins crit
ra sse
l'a f
table au
eng age
si bles
l' aide
alleman de
clau de
hab itu
i g
lumi ère
justi ce
so li
espè ce
ar ab
signi fie
mu m
cie l
commis sion
com ment
département al
béné fi
on om
mon tagne
for tement
cro issance
tour s
dé signe
ch ap
u me
nom in
chin ois
c ités
ch asse
territ ori
ru p
ut es
som met
se urs
littéra ture
mété or
objec tif
scienti fique
d' ailleurs
er ie
ci des
a la
ti tres
ra ble
dis ci
kil om
entra îne
fédé ration
cu les
tr ême
enregis tre
can al
rus sie
v és
au tant
i cul
dé p
li gue
com par
sa inte
li vres
ré alité
liber té
imp éri
c roix
col labor
élé ment
issu e
t ères
te lles
ph ère
religie ux
région ales
découver te
y er
nor ma
ma î
con cent
p om
ex clu
ap proche
trib un
com pris
propor tion
chac un
mis sions
diff icul
catho lique
don née
dol lar
avant age
sor ti
is ent
appe lle
cent ral
mo ts
pré par
ver sa
par le
let tre
at test
ô ne
rom ain
représent ant
classi fication
s cé
con ç
b la
h os
mon te
n' y
l'in térieur
c tes
éta tion
effet s
britan niques
nom mée
l' occasion
conna issance
europé en
pas sant
ac cu
méth ode
conf lit
ti ens
et h
compa g
peut être
ri ca
con sacré
an i
monu ments
é coles
er t
constitu é
ancien nes
tour n
nation ales
propri éta
l' im
pie d
sig né
chans on
s h
n' ont
jou eur
ct ur
rom aine
ca démie
p ilo
thé ori
annu elle
fi x
al ise
diffici le
sci ence
ss ée
appar ition
histori ques
mais ons
cé es
l our
geor ges
s és
ist ère
méde c
ri ches
pour tant
pl antes
nouve l
w a
vis ite
ris ques
ser ont
arri ve
chr ist
étr ie
ma téri
n is
o y
c aux
biblio thè
loge ments
reli gion
re prend
soci al
commun al
aut onom
cri tiques
sole il
om étrie
cul te
décis ion
nu clé
puis que
se cré
l d
français es
comm and
ré cent
eff ica
re ti
mon tr
ra re
hô tel
décla re
cô tés
vérit able
d its
con grès
s'é tend
si mi
l'é nergie
com porte
mort s
syn di
ma inten
autor ité
vit er
ne lles
te ments
lo t
d g
ni co
royaume uni
ouver ture
li ques
d' entre
vi dé
é cole
ar mes
ou til
ran g
dimin u
phénom ène
milie ux
défin ition
ci vil
con texte
m our
off ici
pouv ant
résist ance
ap pr
d' en
bâti ments
g as
précipit ations
cul p
ter mine
lo cal
temp le
s ch
au d
es sa
scé n
sol dats
illi am
roy ale
st and
h al
réalis ée
ve ut
ten tion
o d
re ine
th om
ra is
l' am
s culp
piè ce
b ro
sex u
per t
f roi
ves ti
aug us
de me
conf ér
re prises
japon ais
f la
officie llement
tis me
f ant
nature lle
dy nas
o re
mé tal
un ité
popu lations
mondi al
y me
philosoph ie
ch ite
paris i
se ction
is ée
lo gne
g ol
vé hi
jou er
ri vée
s pati
chu te
e ut
lu tte
d ère
l'é lection
chris ti
di men
jur i
institu t
dollar s
réguli èrement
cré e
soi ent
g or
w illiam
sor te
pre uve
lé gu
mala die
l' aire
qua tri
quit te
e f
n our
sou ff
con cur
publi cs
gra tion
l' organisation
v ite
tota le
l' espace
constru ite
b ér
pa les
constru ire
ren ouve
actu ellement
il l
tour née
pos ant
dev ait
tis te
at h
suff is
pha se
quatri ème
supé rieure
bas se
appli cation
kilom ètres
s' y
con vention
gu i
an ima
par ce
re jet
is er
ç a
poli ce
contraire ment
cons ci
dis tance
i ale
au de
aff ec
permet tre
ta ine
mes ures
pos ent
fut ur
da vid
alis é
établis sement
h in
lé gi
arti cle
fon dée
tan ces
moy ens
mar ine
apparti ent
rejo int
am ment
établi r
peti tes
l'ar t
mar che
mém oire
l' idée
con nus
profes seur
c ts
numé ro
sa c
mé dit
famil les
t tes
illa ume
gu illaume
cou leurs
der rière
lo s
éle vé
aéri ennes
k er
qué bec
lar ité
cle r
produ ire
im médi
parois se
ie l
pro pres
prési denti
com é
di a
atte indre
qu ences
mu sul
projet s
mar tin
an o
é toi
per for
fé min
ou ti
euro s
tempéra tures
ti fi
b elle
né go
s ée
val u
tradition nelle
compos ée
mo bil
ri ve
fle uve
s tre
som me
ci de
fron tière
re trouv
pos ée
fr ères
and ré
bâti ment
consom mation
économ iques
h it
électri que
suiv antes
my th
mon ie
agri cole
reç u
loc aux
diff u
progres sivement
ré forme
d ar
ren for
gr ille
v on
comple xe
topony mie
a ma
quo ti
s is
c ru
su dest
v ont
ré pu
dépend ance
guer res
lég en
désign er
distribu tion
volon té
man che
sup p
dé si
lang age
l' europe
des cription
l'in see
vi o
at ti
char gé
monu ment
ac cor
l'ar rivée
in vent
vi v
consi dère
c f
comman de
is o
fait s
scienti fiques
seu ls
é po
fond ation
océan ique
s it
fa veur
con tient
jeunes se
appel és
dou est
su douest
mi cro
fon ds
re van
fi c
l ines
de mi
imp lant
man que
souver ain
il ité
conom ie
s ang
m ans
bu reau
ro che
ré vé
lon s
ra mi
l' assemblée
l' utilisation
bou t
tien nent
dévelop pé
l'in dustrie
augment ation
résulta t
diffu sion
contr at
g ers
co s
pos sé
mb our
re cue
ha me
imp li
ra s
s sin
ro is
cit oy
cour se
na po
no te
revan che
d' environ
ouv re
con sul
d' europe
. c
pré voit
concep t
par ents
secré taire
bi ens
jus te
au dessus
vidé o
four n
n ’est
d' autre
con ception
lesque ls
pré fe
l' ad
ri ce
tom be
rest re
l' ancienne
g le
ca tal
vi enne
différ ence
is ra
itali en
o ine
partici pation
hu maine
é cla
mo teur
re vient
av an
vi end
p és
photo s
é dition
mé tho
nation aux
rich ard
mé lan
v ali
é qu
réalis er
ro ck
pe l
ra ine
s pi
dis cours
no tion
per man
suiv re
nico las
è tes
graph iques
est re
peu p
éro port
an tique
sau f
anti qu
comp lé
du es
lais se
représent ation
bu dg
ré alise
d' avoir
z a
enti èrement
propriété s
ca de
déc ret
comp tait
ais sent
sa cre
par ta
can a
concer ne
pe ine
f ête
j .c
k ar
ouv rages
rapi de
la ise
éco logique
thom as
hu man
tribun al
unique ment
assu rer
idé es
li v
l' allemagne
artis tes
éle ctor
at tend
den ses
ma xi
bre ton
fa c
nord ouest
for ment
ni er
élu s
g ou
v ise
médit er
opéra tions
rempla cé
nor dest
é difi
compéti tion
la ge
ten ti
tra in
py rami
j é
d û
qu és
plu vi
règ les
am bi
ort ho
l' association
poi ds
sa tion
enti er
possi bilité
assa ssin
dé faite
end ro
département ale
re ux
dom aines
deven ue
x ion
mar ne
méditer ran
napo léon
mé da
au teur
cy cle
vi r
blan che
vari été
établis sements
rur ale
accue ille
recher ches
po tenti
des ser
ré seaux
y o
l'ex ist
bi le
v et
& gt
is é
por tée
mis es
bern ard
actu el
dé di
bra s
colle ction
l' hé
mété o
distri ct
man dat
fran cis
épo ques
jui fs
évé nements
gi le
ex ception
g enti
tri che
vie ux
am is
fer me
gi r
ar mées
m â
europé ens
accue il
w al
acces sibles
siè cles
utilis ant
divers ité
l'exist ence
min istère
collè ge
no y
ta tions
l'a cadémie
pro fonde
hô pit
dev rait
sovi étique
le y
che ment
déc en
vi vant
ve il
rais ons
lan tique
ca thé
dé pendant
mo des
libé ration
candi dat
pla teau
l'ab baye
ma gaz
occu pe
r ence
f t
consé quence
l un
équi val
simp lement
è ce
mon d
change ments
l'au teur
g ren
alli ance
con ver
ja mes
x ique
rest er
ta ires
res sources
cons iste
fonction nement
l'ar chite
co ver
n oire
geor ge
civi le
ces se
compa rer
ceux ci
par vient
l ine
ant é
fais ait
distin gue
bou le
cathé dra
pouv ait
sa tel
c ence
indi que
ob tenu
du l
priv il
psy ch
gouver neur
pr ai
ré fu
st oc
fonda ment
alis ée
l' œuvre
capit aine
person nel
mé ta
ac tifs
l'é volution
di z
officie lle
i ra
infé rieur
modè les
détail lée
li ers
dis pu
v ité
u ves
se maines
dou ze
for tes
vo te
ad res
suiv ants
i ge
com bin
chans ons
bibliothè que
rec ense
dynas tie
imp or
l ite
démo graphie
f us
équi pes
cou v
par tage
la ble
région al
l'ar ti
vas te
autor ités
ri ers
classe ment
matérie l
l' air
v ation
g an
at om
cor ine
ch ent
po is
l'ac tion
rom ains
tr és
p êche
quali fi
société s
considé rée
ven u
commun iste
massi f
no bles
in aug
cul tiv
ar ché
antiqu ité
is sement
beso in
cr ite
cep ti
è dent
ci me
hu main
par am
l'é conomie
ce ci
début s
obli g
dy na
s il
ex is
b os
par ler
pays bas
con dition
com por
quanti té
aména gement
coup le
lin gu
tra duit
déc lin
tu s
sa la
hé ros
t t
si f
cas sin
marqu é
é vi
soci aliste
it re
v ég
posé es
feu illes
orig ines
affir me
ju ge
li aison
fa ci
inf ra
ég lis
églis es
deme ure
è ge
par avant
au paravant
un ités
r ares
ac cident
arrê té
pens ée
in é
é volution
fran ch
utilis ées
o les
d’ autres
mau rice
accue illi
l'un ité
ac te
r ont
étudi ants
quarti ers
hypo thèse
vent e
crip tions
ré cit
que ment
par ten
fran c
min utes
phon e
p â
meille ure
ox y
f un
de france
ves tis
hu mi
fré quent
tra its
d'at traction
ac teurs
l' été
décou page
ali er
graph e
ten us
v ous
dé bu
respec tivement
villa ges
ren om
dev int
éli min
ê tres
météo france
p et
gu y
i b
météor ologique
d d
dévelop per
d’ occupation
tr ente
perfor man
w i
men a
nom bres
supp lément
pr un
is sus
re le
norman die
ré di
d' où
terra ins
k ing
oise aux
provin ces
intro du
cathédra le
pro to
for ts
le m
ac teur
dé place
ver t
élec tron
ô les
l'ar rondissement
culture l
ir s
ma int
maint enant
aude là
ari o
co û
cassin i
mon ta
l'é tu
z i
vra i
vari ations
publi cation
déb ar
di enne
con cours
norma le
uni verse
tron om
ty mo
ouver t
commerci al
ce au
lu xe
mi r
médi aire
use ment
négo ci
n y
alex andre
ac cès
réalis ation
mari time
pos és
y a
arch ie
parti s
navi res
l'ac tu
em prun
al é
t ons
prin temps
cés ar
lo cales
éche lles
hom mage
ref use
d'ar t
symbo le
c lin
l' emp
om b
pas sa
de main
t ante
s port
al pes
tour isme
pa rer
compos ite
bio physique
ré action
r ité
pro cès
f leur
conta ct
vi vre
pluvi ométrie
g am
l'é le
flo tte
nature lles
m ène
dépu tés
iv es
pou s
inté g
ren contr
au to
multi pli
ex prim
spéci fique
s ins
médi é
des tru
ran d
b ron
prési dence
re prise
cl c
w in
cit er
ant oine
av ent
dé mission
dépu té
met tent
rie ures
budg et
ex trême
l'in té
tr ône
li bér
l’ état
al o
l’é volution
rest ent
trans fer
considé rable
écrit s
per d
améli or
y ou
para ît
w o
au str
ju di
pé dition
per ç
re vue
com pose
initi alement
me u
lit tor
ré vol
évolu e
itu re
maje ure
pos ses
inter net
gu it
ro vi
fer rovi
ra con
v ins
présent s
major itaire
l'é che
mon na
pe ur
ly cée
intitu lé
lesque lles
é ditions
bour ge
cal cul
formu le
f leurs
moder nes
m ys
mo lé
présidenti elle
l ille
d'état major
ag er
cro y
responsa ble
dé mon
br un
nom me
tou lou
métho des
dé ta
l'étu de
na is
four ni
dé non
stoc k
con ne
fi dè
ré cu
lè ves
ger man
di vin
es time
sa ble
l' ign
pa ci
m ité
ré uni
priv ée
g ale
min es
us ine
cul tures
é viter
gn er
ma d
ple in
y eux
fabri cation
de hors
g ens
capa ble
conser va
ble u
bom bar
s ports
lé ans
ray on
tend ance
l' institut
r ise
ur ation
géné ration
ré comp
d ation
nat ur
flu ence
l'in fluence
cu is
ré un
vi ce
ou e
l’ occupation
rejo indre
expéri ment
connu es
é chan
sa ires
l' administration
ois eau
prai ries
or b
légen de
qu ar
su g
i a
etc .
v ées
circons cription
é car
but s
sa in
mar se
dire ct
ti ème
match s
ne y
reven us
l' entreprise
re ce
men ac
li on
plan te
li és
club s
h el
c ise
con quête
li é
s' op
arti cles
th ème
don na
mathé matiques
tourn oi
ord res
cant ons
dra peau
en vis
utilis ent
alli és
assu re
caracté rise
influ en
soci ales
nor me
elle même
confér ence
don nant
occident ale
relie f
a re
cime tière
al bert
restau ration
ni ers
jard in
ér u
fil les
ta s
se maine
communau tés
volu me
pein tre
prés er
cin qui
port es
offi ce
ren é
constitu ent
officie l
autom o
pé tro
médec ine
l' op
t ori
instru ment
al gé
étab lie
ima ges
len demain
télé vis
per du
dispon ible
k in
dis que
i ti
médi as
pe int
cu laire
n ar
men ée
cé der
lég èrement
s œur
b lé
réalis ateur
stu dio
cla ire
comman dement
pr en
magaz ine
i ze
ple ine
ca ire
fonda teur
l' usage
h été
ch im
hété ro
ra tions
in car
reconna issance
en du
dé pla
conseiller s
ï que
sus cepti
fin it
qu ées
fran cs
l l
ili bre
jusqu’ à
au ra
w il
comp li
go th
cons tan
é vent
correspond ant
qu ie
enf ance
é ten
nomin ation
h ait
in formations
sou hait
l' image
peu ples
hôpit al
tu e
ver sions
olymp ique
né ga
sui vent
pri me
s tri
lors qu'il
maxi mum
personn alités
ti le
bour go
p ire
f lan
l' agriculture
ass is
cinqui ème
di am
pla ine
cal cu
cho se
pra tiques
o rer
disci pl
d' intérêt
mon as
po inte
rou tes
judi ci
l' ag
af rica
ré vè
pé es
conna ître
vis ible
clas ses
docu ments
chiff re
n' était
dé te
pein ture
li qui
d un
tota lement
préfe cture
man uel
lo g
qu' elles
clima tique
difficul tés
lim ites
ju me
gr èce
compor tement
st ar
pol lu
che val
fré qu
dé gra
géo graphique
ph éri
organ ise
ber lin
cal end
mar ch
inte lle
intelle ctu
pouvoir s
rasse mble
autor ou
règ le
sé jour
littéra ire
a ï
pré cise
s' inst
con test
correspon dent
n an
princi pes
on e
défini tivement
& amp
p ense
religie use
succes sion
pré vu
quali fié
cha î
europé ennes
pro lon
génér aux
chet s
bel ge
ch ante
illu str
é sie
aff lu
mon tée
prom o
brés il
d' euros
ab ilité
dat ant
il it
alis és
ima gin
met tant
décou v
per te
cri re
ver saire
v end
par cours
in forma
se cre
interpr étation
contr ô
pr us
identi té
ry th
g ère
hau tes
clima tiques
histori ens
exemp les
mo dé
ta le
mar c
voi ent
soci aux
chef s
su re
al lu
mil it
éta pe
or ité
dérou le
né er
é lèves
pour suit
jour née
al lant
hom o
crit ure
bor de
inspi ré
administra tive
publi ques
plan ète
nuclé aire
hu mains
v ait
t ang
ju les
ran ce
numé rique
déc ès
progra mmes
équipe ments
l' italie
for mée
posi tif
dipl om
ang laise
im pa
jac k
sta tions
album s
adap tation
bourgo gne
con tro
essenti el
appare il
ch at
ph ar
car bon
ab solu
hô ne
concer t
tra ver
tra fic
représent ent
vic times
gra ve
rési d
l'ab sence
de viennent
di ens
qua si
institu tions
co ût
ma ter
vict oires
et s
l' u
ces sion
appar aissent
histori en
transfer t
organis é
rési dence
con vain
décou vre
combat s
rom ans
aff i
grec s
u elle
sé nat
ch è
ist an
hau ts
au quel
sé ries
mar k
instru ments
l'arti cle
pre uves
tra verse
associ ations
avi ons
b is
lit es
publi ée
multi ples
grec que
habit at
collabor ation
sen sible
représent ants
pro vis
tr om
expéri ence
in de
carac tères
chac une
cro ître
gi es
es cla
phon es
a che
sy l
sta tis
py ré
v ér
cellu les
ri d
ç ons
réser ve
fa ibles
li ens
mau vais
bou dd
z z
er i
industrie lle
li ées
br ux
mon o
anim al
for d
intro duit
ma chine
al titude
étrang ers
li ée
ques tions
pro cla
l' environnement
man n
mo du
olymp iques
signifi ca
var ie
gi en
am our
stand ard
a tives
emp ê
fa ces
regrou pant
cent res
ori es
param ètres
associ é
jou é
second aires
rie urs
manifest ations
é tro
appel lation
cu re
r in
é mi
reven u
faci lement
ac quis
constitu ée
aliment ation
. .
ru es
ais sance
toulou se
la urent
é tymo
en vers
puis s
pas sion
ph ra
dépar tements
tran si
consé quences
cent s
gn ent
po logne
l its
pa ges
re traite
v aut
ré d
ph ab
œ urs
milli ers
dispar u
catho liques
ar ables
calend rier
tro ph
indivi dus
évolu é
er n
command ant
p alité
munici palité
pl ans
chef lieu
é pi
dimen sion
éle ction
tour ne
bron ze
mécan ique
s ti
l'ac tivité
travaille r
ren aissance
espagno l
lim ité
recense ment
fin ance
to t
ac compagn
trans fé
di ale
au raient
servi r
ma ch
no ter
ap pro
ma ires
péri odes
catég orie
cali for
bran che
présent é
th ur
bu l
éle vée
don nent
a dul
origin aire
dan ge
hé ri
champ s
vin g
é change
im pose
ala in
ac compag
déb at
la bel
sujet s
l' entrée
s è
an a
pu re
immédi a
immédia tement
h ori
sou ha
proté ger
n antes
situ és
ou l
d avantage
tour nage
compa gne
consci ence
n ance
hon g
montre r
ve u
ch ale
w n
é d
ab rite
l une
mi x
maî tres
ô mes
urb ain
inter ne
entre r
â ges
bais se
alis er
l’ a
com portent
marse ille
pl ant
fait es
loc alité
s oir
appar tenant
fru its
étoi les
fi xe
sign al
l'a éroport
ac tive
doc tr
égyp te
o k
ma ges
lo giques
k m
th i
cô tes
r ons
urbanis ées
spi rit
loc alisation
in age
s ter
déc len
bénéfi ci
at oires
progra m
n' en
me xique
térie ure
mont ant
int è
fi ction
ès es
comp ter
effectu e
commen cé
ais ons
augus te
caractéris tique
in su
régi ment
di oc
jean ne
quit ter
m ins
propriéta ire
itali enne
montr ent
cou vre
arab e
vis ant
répon se
méde cin
sy mp
by z
mas cul
améli orer
an ie
centre ville
toi le
ass ist
ban que
va sion
den tique
i dentique
complè te
mar cel
circu lation
d' années
s û
réfu gi
rédu ire
par u
mi cha
beso ins
re connu
bourge ois
ve ille
ab ond
vu l
cé dé
die ux
l' enseignement
chois i
vic time
quin ze
réf le
z é
meille urs
blan cs
lan cé
f ar
l’ église
dus tri
sys té
tr ie
con tenu
re trouver
mon ter
maje ur
pa le
le cture
viend ra
dou ard
al d
w ard
découver t
chap itre
travers ée
aff ron
ré el
ma tin
pri maire
concent ration
dispar ition
in ond
sa de
an sion
exp ansion
p ôle
w ay
hétéro gènes
ma c
fin i
autre fois
présent ent
on ze
scén ario
produ cteur
d'ar gent
g ab
ouver te
ra i
chré tiens
artis tique
législa tives
march and
ter restre
chiff res
re pris
as si
in vestis
re trait
accep te
exp lor
lis tes
cer cle
tradu ction
a chet
nive aux
situ ées
attest é
l'ex pression
exist ence
l' ins
du ché
dé chets
mag né
parallè lement
po lon
tri chi
a î
ch ir
endro it
men er
ac tif
can on
matéri aux
mar ins
at es
favor able
iss ances
na z
car din
compos és
s cr
uti n
scr utin
su ites
