e s
e n
o n
d e
l e
a n
r e
l a
t i
o u
q u
i s
e r
i n
en t
a r
e t
i t
u n
a u
l es
o r
t e
u r
i l
o m
ti on
p r
d es
p ar
l '
qu e
s e
d u
t r
c e
a l
c h
m ent
es t
s i
an t
ou r
c on
un e
m e
d é
i e
n e
d '
an s
c om
r é
r a
l u
v e
t a
m a
l i
s on
d i
p a
t é
d ans
c i
p o
p e
r i
é e
s a
qu i
p our
a tion
l le
o i
s u
r es
pr o
g e
t re
t u
é s
c a
v i
m p
s ur
f a
p lu
r an
t er
p u
au x
v er
a c
l o
c o
m i
u x
c es
n é
a le
i re
m o
è re
c u
com m
ur s
on t
m é
plu s
it é
r o
è s
f or
qu es
in e
f f
a t
e x
a ve
u s
il le
ave c
in s
a v
son t
a s
ch e
s o
o is
g u
en d
p h
é ta
e lle
p er
p é
par ti
it e
a b
a p
l é
n a
u t
n om
or t
pa s
n i
s er
qu '
f ran
s es
f i
m ar
t ou
t h
c tion
s ou
g i
v o
t es
b re
is e
s é
si on
m on
or s
g é
l ’
é té
ma is
l on
ent re
tr a
c et
l an
p re
f in
t s
m es
m an
d is
com me
b le
ti que
pr é
n o
ou ve
c ar
en ce
l' é
de ux
g ne
pu is
tu re
cet te
e l
a i
pre mi
a in
s '
m in
d on
r it
con s
j e
s si
tr i
p i
tr es
c ou
or i
b i
pr ès
r ou
oi re
is t
c er
tion s
g ran
g ra
l is
en s
lu i
or d
in t
an ce
a it
a g
fa it
c é
oi r
c our
r ie
a is
n es
b li
v ent
d ’
ver s
un i
er s
a d
ment s
te ur
m et
d' un
o c
comm une
ê me
en ne
y s
é g
pr és
a m
j our
on s
ant s
d' une
le ur
f on
de r
v en
t o
g es
é r
t our
n u
il s
t en
p or
a ire
m u
c la
ê tre
a près
al is
p la
m ême
le ment
po s
è me
i r
te mp
d ont
ale ment
i m
t ant
sou s
in ter
tr u
e ur
' est
n ouve
l s
fran ç
p ort
c or
ar d
e mp
ain si
p end
prés ent
é es
m il
b a
pe u
nom bre
né es
n ation
en ti
ou v
ch a
o b
comm un
c ré
al ors
v is
com p
so ci
ti tu
r on
b u
pu bli
l ie
h u
si e
i que
l ors
i mp
d o
cu l
u ti
m b
g n
fran ce
er re
pr in
te ment
au ssi
di ff
f ois
it u
v ille
m is
an g
g ie
au tres
ation s
d a
r en
gé né
c t
i v
ti f
ré gi
è res
d ent
j us
o ù
h ist
ti n
in es
a ge
pe ut
éta it
ég alement
an te
ti ques
b e
al i
au t
t y
parti e
l les
ti v
c ent
tou t
n ée
r u
tr ois
con tre
g rou
pend ant
u re
de puis
j et
ti ve
pro du
j u
v é
en se
l è
qu' il
te urs
c ri
an d
cer ta
e ff
an ci
uti lis
b er
l' in
p on
tr o
it és
prin ci
gran d
tr ès
gu e
que l
s itu
l' ar
sie urs
c 'est
la tion
plu sieurs
c an
r om
gra ph
ou ver
n on
av ant
ch ar
al le
c ation
premi er
po si
per son
an nées
re c
m ment
tr ans
f e
f ut
pr i
é le
n '
po li
pa ys
r is
eur o
su ite
premi ère
p es
ur es
pé ri
i on
is s
ra tion
it s
s ta
a les
pr es
i res
per met
b les
b as
a mé
th é
ti s
g a
an is
se u
ne ment
f il
j ou
ch er
c in
s y
temp s
v re
dé b
pr end
no ta
se lon
vi ent
o l
dé par
o p
v ie
der ni
po pu
t ent
u e
f é
m er
is te
bi en
s ans
v a
j o
v al
o lo
le urs
ai res
cour s
imp ort
ca s
mo ins
for me
h om
is on
ap pe
f er
gu erre
régi on
vo lu
c rit
al ité
diff ér
n er
ar i
d ou
franç ais
v il
grou pe
cons tru
l ée
r oi
o ff
d ro
d re
tr av
g r
c ie
or g
nota mment
d om
ter rit
qu a
m en
o de
re r
el les
ori g
o s
éta t
c li
mo y
au tre
t al
r al
i ent
min is
l it
p pe
so it
jus qu'
sa int
ce p
la is
v in
c lu
s or
su iv
ch es
l' a
n ord
h ab
s se
co re
posi tion
v es
gran de
c ro
ve lo
d ur
té s
l in
p it
m ée
t on
g er
s in
an née
m ble
ction s
fa ire
dé velo
ma t
ex p
c al
par is
pla ce
r ent
a ine
re présent
ap par
m ort
hist oire
par t
cons titu
b é
se con
z on
ce lle
ch an
dépar tement
c le
en core
g o
je an
jour s
gi que
t an
oc cu
pr is
ser vi
parti cu
ent s
pe ti
av oir
de v
è ne
av ait
su c
é tu
ro y
la r
h é
co l
p ouv
ce lui
ex emp
l ou
na ture
tou te
for ma
d ie
ch é
fil m
it es
don c
tou s
a ille
i ème
pré si
di tion
su s
en vi
s ys
ant es
in té
r est
œ u
poli tique
déb ut
amé ri
g ar
m bre
es pa
l y
ê te
tr ouve
ch i
parti r
mon de
lie u
n ent
a y
ré alis
ai ent
ra p
s tr
dé c
in di
la ire
cul ture
org anis
ô le
ra it
con si
com pa
con na
po se
eff et
a ise
b on
ré s
u se
n or
envi ron
d it
b il
b our
di re
g ouver
c ô
l oi
p lan
e au
re mp
d' é
p ou
graph ie
su d
h i
particu li
éta ts
en ces
mé di
c ité
cou p
b ar
sys t
nouve lle
p l
si g
nouve au
ré e
con om
péri ode
quel ques
m ille
v ari
b ou
m al
l' ex
qu ’
us es
con se
po que
c entre
n 'est
certa ins
fa ce
a ff
lon g
con nu
ab le
exemp le
l ise
b o
f es
d' autres
c r
car ac
nation al
sion s
popu lation
te l
c ès
franç aise
hist ori
lé g
qua tre
j a
il i
ar ti
con tr
b an
d s
su l
hab it
princi pa
sou vent
commun es
f u
ce pendant
tri bu
l' ac
s pé
un is
b at
r ê
re li
c s
volu tion
m or
sa ge
man i
mu si
d ès
anci en
h au
v oir
orig ine
té e
ter re
géné ra
ti ent
i ma
fon ction
se ment
i ci
i i
pe c
mar qu
î t
comp te
améri ca
nombre ux
cha mp
territ oire
tr ou
é tant
c it
as se
euro pé
e c
é qui
x e
e m
hu i
aille urs
oi res
géné ral
é ri
le t
res pon
de vient
c k
ge ment
pa tion
c ur
rie ur
por te
ad minis
consi dé
te ch
soci été
si è
dé fin
le r
comm er
i ques
be au
spé ci
te au
for mu
li gne
a f
co le
ni ve
ent e
m ont
ère ment
é conom
dur ant
éta ient
se p
d at
