e s
e n
o n
d e
l e
a n
r e
l a
t i
o u
q u
i s
e r
i n
en t
a r
e t
i t
u n
a u
l es
o r
t e
u r
i l
o m
ti on
p r
d es
p ar
l '
qu e
s e
d u
t r
c e
a l
c h
m ent
es t
s i
an t
ou r
c on
un e
m e
d é
i e
n e
d '
an s
c om
r é
r a
l u
v e
t a
m a
l i
s on
d i
p a
t é
d ans
c i
p o
p e
r i
é e
s a
qu i
p our
a tion
l le
o i
s u
r es
pr o
g e
t re
t u
é s
c a
v i
m p
s ur
f a
p lu
r an
t er
p u
au x
v er
a c
l o
c o
m i
u x
c es
n é
a le
i re
m o
è re
c u
com m
ur s
on t
m é
plu s
it é
r o
è s
f or
qu es
in e
f f
a t
e x
a ve
u s
il le
ave c
in s
a v
son t
a s
ch e
s o
o is
g u
en d
p h
é ta
e lle
p er
p é
par ti
it e
a b
a p
l é
n a
u t
n om
or t
pa s
n i
s er
qu '
f ran
s es
f i
m ar
t ou
t h
c tion
s ou
g i
v o
t es
b re
is e
s é
si on
m on
or s
g é
l ’
é té
ma is
l on
ent re
tr a
c et
l an
p re
f in
t s
m es
m an
d is
com me
b le
ti que
pr é
n o
ou ve
c ar
en ce
l' é
de ux
g ne
pu is
tu re
cet te
e l
a i
pre mi
a in
s '
m in
d on
r it
con s
j e
s si
tr i
p i
tr es
c ou
or i
b i
pr ès
r ou
oi re
is t
c er
tion s
g ran
g ra
l is
en s
lu i
or d
in t
an ce
a it
a g
fa it
c é
oi r
c our
r ie
a is
n es
b li
v ent
d ’
ver s
un i
er s
a d
ment s
te ur
m et
d' un
o c
comm une
ê me
en ne
y s
é g
pr és
a m
j our
on s
ant s
d' une
le ur
f on
de r
v en
t o
g es
é r
t our
n u
il s
t en
p or
a ire
m u
c la
ê tre
a près
al is
p la
m ême
le ment
po s
è me
i r
te mp
d ont
ale ment
i m
t ant
sou s
in ter
tr u
e ur
' est
n ouve
l s
fran ç
p ort
c or
ar d
e mp
ain si
p end
prés ent
é es
m il
b a
pe u
nom bre
né es
n ation
en ti
ou v
ch a
o b
comm un
c ré
al ors
v is
com p
so ci
ti tu
r on
b u
pu bli
l ie
h u
si e
i que
l ors
i mp
d o
cu l
u ti
m b
g n
fran ce
er re
pr in
te ment
au ssi
di ff
f ois
it u
v ille
m is
an g
g ie
au tres
ation s
d a
r en
gé né
c t
i v
ti f
ré gi
è res
d ent
j us
o ù
h ist
ti n
in es
a ge
pe ut
éta it
ég alement
an te
ti ques
b e
al i
au t
t y
parti e
l les
ti v
c ent
tou t
n ée
r u
tr ois
con tre
g rou
pend ant
u re
de puis
j et
ti ve
pro du
j u
v é
en se
l è
qu' il
te urs
c ri
an d
cer ta
e ff
an ci
uti lis
b er
l' in
p on
tr o
it és
prin ci
gran d
tr ès
gu e
que l
s itu
l' ar
sie urs
c 'est
la tion
plu sieurs
c an
r om
gra ph
ou ver
n on
av ant
ch ar
al le
c ation
premi er
po si
per son
an nées
re c
m ment
tr ans
f e
f ut
pr i
é le
n '
po li
pa ys
r is
eur o
su ite
premi ère
p es
ur es
pé ri
i on
is s
ra tion
it s
s ta
a les
pr es
i res
per met
b les
b as
a mé
th é
ti s
g a
an is
se u
ne ment
f il
j ou
ch er
c in
s y
temp s
v re
dé b
pr end
no ta
se lon
vi ent
o l
dé par
o p
v ie
der ni
po pu
t ent
u e
f é
m er
is te
bi en
s ans
v a
j o
v al
o lo
le urs
ai res
cour s
imp ort
ca s
mo ins
for me
h om
is on
ap pe
f er
gu erre
régi on
vo lu
c rit
al ité
diff ér
n er
ar i
d ou
franç ais
v il
grou pe
cons tru
l ée
r oi
o ff
d ro
d re
tr av
g r
c ie
or g
nota mment
d om
ter rit
qu a
m en
o de
re r
el les
ori g
o s
éta t
c li
mo y
au tre
t al
r al
i ent
min is
l it
p pe
so it
jus qu'
sa int
ce p
la is
v in
c lu
s or
su iv
ch es
l' a
n ord
h ab
s se
co re
posi tion
v es
gran de
c ro
ve lo
d ur
té s
l in
p it
m ée
t on
g er
s in
an née
m ble
ction s
fa ire
dé velo
ma t
ex p
c al
par is
pla ce
r ent
a ine
re présent
ap par
m ort
hist oire
par t
cons titu
b é
se con
z on
ce lle
ch an
dépar tement
c le
en core
g o
je an
jour s
gi que
t an
oc cu
pr is
ser vi
parti cu
ent s
pe ti
av oir
de v
è ne
av ait
su c
é tu
ro y
la r
h é
co l
p ouv
ce lui
ex emp
l ou
na ture
tou te
for ma
d ie
ch é
fil m
it es
don c
tou s
a ille
i ème
pré si
di tion
su s
en vi
s ys
ant es
in té
r est
œ u
poli tique
déb ut
amé ri
g ar
m bre
es pa
l y
ê te
tr ouve
ch i
parti r
mon de
lie u
n ent
a y
ré alis
ai ent
ra p
s tr
dé c
in di
la ire
cul ture
org anis
ô le
ra it
con si
com pa
con na
po se
eff et
a ise
b on
ré s
u se
n or
envi ron
d it
b il
b our
di re
g ouver
c ô
l oi
p lan
e au
re mp
d' é
p ou
graph ie
su d
h i
particu li
éta ts
en ces
mé di
c ité
cou p
b ar
sys t
nouve lle
p l
si g
nouve au
ré e
con om
péri ode
quel ques
m ille
v ari
b ou
m al
l' ex
qu ’
us es
con se
po que
c entre
n 'est
certa ins
fa ce
a ff
lon g
con nu
ab le
exemp le
l ise
b o
f es
d' autres
c r
car ac
nation al
sion s
popu lation
te l
c ès
franç aise
hist ori
lé g
qua tre
j a
il i
ar ti
con tr
b an
d s
su l
hab it
princi pa
sou vent
commun es
f u
ce pendant
tri bu
l' ac
s pé
un is
b at
r ê
re li
c s
volu tion
m or
sa ge
man i
mu si
d ès
anci en
h au
v oir
orig ine
té e
ter re
géné ra
ti ent
i ma
fon ction
se ment
i ci
i i
pe c
mar qu
î t
comp te
améri ca
nombre ux
cha mp
territ oire
tr ou
é tant
c it
as se
euro pé
e c
é qui
x e
e m
hu i
aille urs
oi res
géné ral
é ri
le t
res pon
de vient
c k
ge ment
pa tion
c ur
rie ur
por te
ad minis
consi dé
te ch
soci été
si è
dé fin
le r
comm er
i ques
be au
spé ci
te au
for mu
li gne
a f
co le
ni ve
ent e
m ont
ère ment
é conom
dur ant
éta ient
se p
d at
v oi
peu vent
tif s
li m
au g
an ti
b or
te x
pro b
dé cou
s ant
vo y
en f
pr ise
nation ale
f r
elle ment
a il
t end
g ré
po sé
fa mille
ser v
syst ème
é ra
b ri
mar i
c ant
d' ar
m ise
ay ant
i gne
dévelo ppe
th e
ti en
pouv oir
uni vers
mon di
prési dent
s ci
s our
iss ance
ac tion
b el
ti e
p le
ag ri
as soci
cha que
con f
li que
ense mble
p s
che z
in te
dé e
derni er
c ture
f ils
gouver nement
re la
ri ère
p è
c au
pi erre
alle man
de ven
jusqu' à
ent es
z e
m ie
m me
ti tre
it aire
pro jet
is me
gu es
p al
l ant
b r
s t
a fin
parti ci
b al
pro che
è de
t ard
é crit
in f
ch â
con cer
ac tu
l' un
ou est
ac tiv
p au
publi que
o pé
su p
do it
h a
il les
dé f
pr a
res te
vis ion
t est
trav ail
v ale
nive au
vil la
au jour
po ssi
ur ent
v it
b es
h e
c y
ma in
p ère
se au
po int
mo is
sé rie
états unis
g au
mil li
forma tion
g en
s c
ta ille
î tre
ab les
ca pit
cin q
par mi
euro pe
so l
pres sion
ô t
ne lle
t te
d ra
aut or
c ra
di rec
v res
tive ment
mis sion
off i
occu pation
p li
tou jours
conse il
ni que
ba se
en nes
â ge
m ouve
cu e
h y
j or
fi cation
ré f
c teur
ur b
ne l
co lle
qu é
commun au
tou tes
moy enne
on ne
clu b
ty pe
en suite
cli mat
rap port
e ux
d è
o graphie
ci r
t om
r us
dé pend
qu' elle
co lon
r è
tiv es
r ôle
che f
ph y
ci dent
d' hui
formu la
ou s
m uni
s s
s enti
de ment
r end
s au
ma jor
servi ce
éta b
œu vre
t aux
produ ction
si gn
l or
situ ée
s ens
formula _
lo gie
so ls
re g
ce ux
nombre uses
su b
n ie
d an
aujour d'hui
carac té
o t
at te
de man
lan d
éle c
j ac
lou is
s ort
ti ère
r y
mil ie
in i
th è
exp lo
i ble
ord re
al bu
ra ison
gr â
roy au
grand s
il o
l'é g
albu m
n at
p en
dé mo
ber t
développe ment
secon d
si x
d enti
un es
publi c
cant on
for t
grâ ce
s ’
com pos
in g
par fois
î le
hom me
n ant
en nent
au c
b res
zon es
certa ines
mb res
ta ble
du it
ter min
ob jet
es pè
té lé
olo gie
ç on
re cher
si mp
na ge
ter me
b lan
c is
ser a
temp éra
re tour
du str
con tra
ce la
dustr ie
f o
que lle
l’ é
i gn
ri que
s ite
don ne
v an
secon de
cri p
person nes
en g
pris es
i es
vo it
c ée
l ent
premi ers
s ent
d’ un
je u
f ré
re ç
at ta
con ti
ra pi
eff ec
ro s
ori ent
lan gue
l' année
phy si
cor respon
c re
co les
qu ant
s tru
pro pri
deux ième
tra dition
vi ct
habit ants
vo l
constru ction
f our
fa is
i tion
s an
ca le
lis te
ar ch
suc cès
ce l
e u
moy en
m oi
ex iste
me mbres
is se
ma s
d’ une
ten u
ta tion
v ue
pro fes
uni on
ar ri
m ine
appe l
d en
h ô
différ entes
é lé
ré seau
v u
conti nu
l' état
an ne
pa tri
b â
offi cie
v ée
cor ps
lo c
mondi ale
m mes
trans port
s om
qu er
s' est
pri x
dro it
ag it
di o
royau me
prend re
di ri
é tr
su pé
g nes
muni ci
si ve
remp la
cla ssi
sa ison
nom mé
cep tion
châ teau
b ois
beau coup
né ces
compa gn
vo ie
dé cla
u m
th o
dis tin
cré ation
b rit
di tions
bour g
zon e
f s
la quelle
tr on
emp ire
té rie
toute fois
dé ci
histori que
l' ab
é lu
hom mes
vi er
ra ge
ai r
al ie
qu it
in ts
h en
particuli er
è te
dévelo p
pro gra
caracté ris
se in
pr iv
ter ra
or ie
b ut
f ont
dé j
déj à
m us
è tres
cin é
ang lais
ti me
seu l
sig ni
tr ouv
al li
bil ité
b ra
re f
lo is
n et
ré volution
anci enne
comm an
la ires
me ille
jour n
char les
is tes
j ap
ré sul
lors que
brit an
g ée
don nées
’ est
con fi
mi que
l'é poque
différ ents
tra vers
h an
té ra
au rait
ne u
t or
présent e
è nes
sur tout
com bat
ent ra
l à
jap on
g ent
an ces
d' a
mo der
pr om
mais on
communau té
réf ér
ver sion
aug ment
tr é
pas se
an non
ins tal
h er
v ain
so lu
ni ques
n' a
g rec
ins titu
m au
l'ég lise
f ie
villa ge
ang le
pro vin
ph o
r ant
li vre
b us
étu des
d y
ain es
au tour
di fi
dev ant
tan dis
l' on
mu l
en ant
mouve ment
ré publique
û t
ta gne
ca pa
x i
je une
olo gique
fi que
ver se
musi que
t ur
peti t
la s
c ations
ab ord
pos s
qu ent
jou e
ap pli
l' histoire
généra lement
enf ants
f it
c les
re ven
gi ques
rom an
ma ire
ru e
plu part
s al
su ff
di x
ti l
fe u
ph on
in dre
je unes
t ête
s' é
ten ir
fé dé
tra ite
c ord
so ph
h o
a teur
commer ci
ce lles
mal gré
produ it
ri er
sep t
adminis tr
m y
tex te
seu lement
sy n
possi ble
trois ième
ré gu
œ ur
il li
cli ma
qu and
du s
f urent
ca p
fon d
alis te
pro pre
mani ère
ois e
l' est
se igne
ma gne
ca dre
utilis é
graph ique
v or
mo dè
pi è
qu arti
ar tis
ac cue
europé enne
urb anis
en fin
f ra
dom in
vil les
lit téra
ré si
for ê
s pec
sta tu
gran des
g res
es senti
ag es
te lle
milie u
étab lis
s oi
h on
ter res
g t
ch ine
î ne
la bor
je ux
don né
con sé
trav aux
t ôt
in dustrie
re ur
dire ction
tra it
inf lu
gu er
v ê
se ur
lan ce
k e
d ite
an al
uni que
organis ation
chan ge
univers ité
d res
ma la
bâ ti
sta tion
t ures
l'ar mée
titu de
cô té
suiv ante
l en
hu it
économ ique
c teurs
com pé
prés ence
h n
correspon d
par a
champ ion
p ont
da te
for mes
reg is
import ant
ti ers
me ur
el s
is ation
con ser
cau se
ph é
m pa
di vers
ma i
mé tro
derni ère
d' in
te ls
appe lé
é poque
t ère
m om
rê t
éle ctions
sa ire
tempéra ture
l' au
p ie
ri es
su per
met tre
ven tion
minis tre
principa lement
m ère
crip tion
siè ge
ch am
administr ation
physi que
décou ver
ins t
reli gie
h ar
je c
cla sse
ba taille
an im
is su
premi ères
c end
b in
g no
permet tant
mil itaire
d ence
celui ci
qu ali
mon tre
as s
ciné ma
espè ces
su i
alle magne
rom e
import ante
comm ence
ta it
ch o
an nu
u ve
qu' un
et c
si gne
adminis tra
p is
é volu
le ction
lè ve
sa it
ini ti
s ty
situ é
ch au
effec tu
ar t
s' agit
seu le
la tions
it aires
ch et
franç ois
se mble
nu mé
g al
résul ta
l'é qui
orig in
ta ire
comm uni
étu di
fin alement
c lé
mes ure
ti er
pré cé
le quel
su jet
d' or
territ oires
fi cie
qu' ils
i denti
ja mais
ré parti
ne w
é pou
è rent
nouve lles
ou tre
équi pe
ad ap
poss ède
pa re
mb o
j an
suc ces
alis ation
mo t
jo hn
sour ces
ren contre
rou te
h aut
ser ait
oc ca
du c
colle c
v ant
dom aine
ph ilo
mar que
l' ensemble
explo it
fe mmes
em pe
m ou
du e
philo soph
lle ment
l' île
remp or
fa çon
poli tiques
c és
f ille
recher che
li er
ma tion
situ ation
ga z
ta il
me mbre
n ous
jac ques
l' ouest
pro gres
person ne
s en
lo y
ca mpa
fe mme
iss ent
it ali
for ce
ra y
rie ure
espa ce
l om
deman de
car rière
d' être
pau l
car te
milli ons
p y
pho to
lo gique
peti te
opé ra
mar ie
sci enti
i dé
ner gie
dé sor
bé né
ty pes
ma ine
sc ène
rapi dement
suiv ant
ph ili
ra le
contr ôle
désor mais
comm en
it alie
die u
è mes
bi o
h ors
fa vor
pro té
il la
mom ent
import ance
na vi
t oi
ai de
ch ant
di ver
mon u
mat ch
servi ces
à dire
mo ine
av aient
re t
appar a
oc cident
fa ite
œu vres
activ ités
qu' une
mar s
té rieur
gau che
m it
p an
su it
é co
d' eau
fa ible
lui même
ad op
l' origine
b y
pro te
occa sion
â tre
ch ois
o it
is la
pa ge
ins tru
s ance
p aux
pra tique
l' es
é cu
y p
a jou
ra t
lé es
ense igne
cré é
ti é
fon da
mé té
agri coles
d' abord
empe reur
m ê
tri ce
m és
na ges
d am
k i
particuli èrement
vi ennent
fa bri
té es
li bé
ba y
né an
an e
u l
o f
ille t
ma je
capit ale
mi che
ven ir
d' état
inter national
c ’est
trou pes
en regis
mul ti
ca tho
re conna
a de
com posé
généra le
ma g
ais on
propri été
pr im
na ire
américa in
c l
a éri
ch in
défin i
ab lement
qu’ il
grou pes
néan moins
po logie
é che
ge or
j ur
int en
angle terre
compagn ie
activ ité
ch ans
pon y
dé ri
dro ite
la it
po ser
sy mbo
fin ale
n és
utilis ation
i x
tra ité
d' au
sour ce
film s
rè g
ens ité
re trouve
ré du
fa mil
aut om
al ités
ali ment
at s
do cu
asse mb
é ro
o bli
comm is
f ou
pa y
iss ant
ille r
o cé
g on
pré cis
régu li
profes sion
mo s
constitu tion
régi ons
vale ur
jusqu' en
l' at
è ve
ca té
cir cu
l' empire
at oire
a mi
connu e
ri ch
cou pe
ré pon
sty le
af fa
élé ments
sa cré
l' une
po l
f aut
oi vent
l'équi pe
don ner
fr ère
ré es
principa les
pré ci
cé lè
w e
n oir
re jo
po le
des t
v as
déc is
produ its
inter pr
opé ration
cons om
la tin
l'é cole
asse z
l' ordre
thè se
di vis
élec tri
d' al
aff ir
gu eur
pr it
régi me
auc un
posi tions
et te
se ments
ac cord
par c
l' université
h eur
i ons
th er
f au
mar ché
tro p
can di
indi vi
bal l
anal y
seigne ur
ca mp
pro vo
sa is
con du
nouve aux
stru cture
ch ac
vo lon
c en
contra ire
princi pal
pr ison
jus ti
associ ation
ten ant
i er
lim it
to tal
sive ment
as su
x es
che v
éta bli
thé orie
environ nement
l' ancien
caté g
patri moine
plu tôt
fi er
e mb
ex péri
quarti er
g és
déf ense
étr ang
com te
pro ces
respon sa
lie ux
ins pi
es ti
ob tient
pe in
dis par
l' al
ma tique
po ints
v ois
s co
major ité
démo cra
ris que
comp le
é ch
ta ge
l' en
por ter
fais ant
lan de
ob jec
dro its
v ra
lar ge
étu de
ac cep
for mé
dat s
l oire
ty pologie
modè le
res pec
progra mme
popu laire
to ta
sur face
exp li
for te
l' autre
ca les
tech nique
c'est àdire
e aux
britan nique
c tu
or k
océ an
des sin
lé on
d oc
fon de
at tribu
s tu
ju in
par lement
p les
cou ver
con tribu
port s
anci ens
voi x
v ou
p ant
princi paux
ga re
alleman d
déci de
ch ré
ob serv
l' eau
a ins
fu sion
vict oire
hen ri
référ ence
par ois
ges tion
temp or
de l
ra ges
u sage
auc une
tr ouver
f re
gen re
lan gues
bon ne
men tion
gr ès
b ord
les que
c te
ab an
pos te
i dée
g ène
thé âtre
entre prise
ur ba
hau te
cha pe
mé de
espa gno
con tin
co de
com prend
ar rê
ph e
ri vi
rou ge
p ée
y mp
espa gne
celle ci
su isse
voy age
ex ist
val lée
gé ographie
r il
annon ce
provin ce
lon gue
qu ence
é cri
cu le
diff ici
qu is
oc to
char ge
d in
lé ment
ti r
commer ce
ju illet
ct ures
appara ît
ron dis
ac tions
mus ée
ro bert
qu' en
fi ques
qu ête
f ron
pro x
c lo
con ditions
s te
phé nom
t ar
dé sign
nom s
campa gne
ques tion
ti ne
sé par
alis tes
rés ist
in fé
miche l
princi pe
inter nationale
di que
bi ographie
n ’
ri en
for ces
d ensité
ra c
octo bre
r ur
reç oit
g lom
ph a
phili ppe
dis tribu
rest au
cri tique
pas sé
champion nat
b ap
actu elle
dé termin
pro pos
as sa
te mbre
dé s
entre prises
di vision
es se
to pony
dé pu
gi on
v ites
mê mes
li ber
li bre
s tra
enseigne ment
emp loi
pas sage
sep tembre
dé ce
constru it
a teurs
fin anci
as sur
f lu
ré ser
u el
mé can
dépar t
g h
sé cur
vari ables
person nage
d' origine
bre tagne
té ri
ch u
gu re
ag glom
l és
p sy
la c
ard s
diri ge
tr an
bi bli
p ent
précé dent
ré g
no tre
i ca
ma ins
simp le
oi x
che min
mo de
tiv ité
ju i
affa ires
con cep
é ration
l t
dé tru
olo giques
considé ré
fi é
ac ces
d' at
prote ction
supé rieur
re lie
y ork
l' union
li gnes
moi tié
cla s
d' ex
per mis
ma ssi
forma tions
atte int
con serv
m ant
na issance
ord in
publi é
so le
do l
gar de
tech no
emp loy
lo ge
a te
re groupe
f is
deven u
i bles
dé rou
par al
pres que
d oivent
is tique
sor tie
f lo
pr on
sa ges
v age
ol ymp
vé rit
qu ée
rè gne
sant é
end re
h or
qu in
é ment
l' homme
urbanis me
ale x
ré us
moder ne
améri que
fes tiv
ég lise
dé mie
a mp
américa ine
utilis ée
a tive
ne ments
ô me
ra dio
cour ant
in clu
org an
au près
assemb lée
no s
an ge
mé es
des ti
ci en
m ur
nature l
essenti ellement
ve ur
on d
mo difi
p in
ang er
tr action
terra in
se cteur
déce mbre
représent e
dou ble
derni ers
d' après
épou se
tech niques
qu alité
ct or
v ais
ima ge
ent rée
vi ol
jan vier
it h
hi ver
c œur
journ al
f le
blan c
tr ac
mé m
a vi
agglom ération
b ac
dé crit
cu s
g ation
parti es
des sus
ma ge
in dépend
tri b
pa ti
fo ot
in tro
rela tions
amé li
bas sin
cé ré
il lu
pa lais
ser t
g re
con ta
cent rale
s por
ti enne
ar mée
du re
sou tien
re au
tent e
certa in
é tique
lo in
con dam
ar ts
dé tail
permet tent
g ro
pr enant
communi cation
fr ont
ch ris
dis pose
com position
se x
ad a
vites se
se mb
peti ts
re grou
é vo
sta de
pro pose
cré ée
li en
compé ti
bes o
n as
b en
vin gt
ti ères
lo gi
sécur ité
hy dro
prin ce
puis sance
chi ff
uti lise
commun ale
ar es
cé lé
cô te
ent our
ra ient
ci er
ex écu
cour t
ri r
cir cons
spec ta
ê tes
pro cé
inté rêt
rat ta
alis me
vi c
tex tes
fon ctions
pas ser
marqu ée
contin ent
di min
po ly
port ent
appe lée
forê ts
ne ls
peu ple
d or
res sort
lu mi
prob ablement
sui vi
constitu e
d ant
alle r
for mer
pour rait
a o
ra di
s ar
g in
qu' à
v ar
partici pe
mil itaires
trav aille
g ag
ex er
jusqu' au
réparti tion
é pis
l' av
l' inter
statu t
s ence
c ali
transport s
long temps
vi a
vê que
tra du
conse iller
ii i
b lie
ch oix
l' âge
he ure
arch ite
ch és
urba ine
is ant
and re
ban de
ap pu
carac tère
cham bre
l' an
person nages
lar gement
di en
fon dé
l' objet
situ e
cons ta
heur es
di pl
no ve
ma sse
pro fit
s' en
festiv al
si ble
ouv rage
en voy
direc tement
è tre
confi r
solu tion
cha îne
sa voir
av ril
h onne
f est
cel lu
ma tière
principa le
résulta ts
car tes
j on
chan gement
nor man
classi que
diver ses
n av
import ants
géné r
deven ir
ap pare
célè bre
l' empereur
trou vent
l ème
cla u
voi es
g ros
ç ant
néces saire
d' ac
amé na
comp lè
mani fest
so vi
lim ite
paral lè
se ine
sub s
ti mes
v oire
lan g
sou ver
port ant
rivi ère
ré publi
ne ur
traite ment
pr ennent
ven ant
gé es
pres se
jo se
des cend
a ch
h ér
con tempor
col lè
ma ines
fi g
ég yp
mari age
in tes
l' album
di ction
î les
métro pole
b ru
meur t
l' or
nove mbre
entra î
foot ball
pr ê
pro por
rondis sement
piè ces
sci ences
v rier
po i
o li
nu it
im ité
syst èmes
conna ît
lo cale
n us
pe ct
diff us
g ence
cour onne
ma thé
direc teur
meille ur
ur é
cr ise
g lo
lég isla
rela tivement
sé es
ca t
let tres
vale urs
pron on
è se
a tique
pa pe
américa ins
qu anti
dis pon
gé o
g la
mie ux
rend re
hau teur
b ais
ly on
com té
por tu
nature ls
ap parti
signi fi
por té
af rique
mé th
réalis é
cher che
p ens
z o
pe au
roi x
vi d
prox imité
fé vrier
cou leur
ten sion
lè mes
o des
s ites
ref us
ob tenir
é li
e d
ten ue
neu f
re marqu
chape lle
proces sus
al ter
c ède
op position
j ard
au teurs
pré f
certa ine
gé nie
inté res
joue urs
pi er
enf ant
é vé
di es
lon dres
ë l
fran co
r ite
off re
fi gure
ca d
économ ie
b ran
anim aux
be c
am en
alleman ds
l' occupation
pa ix
atta que
munici pal
k a
bel gique
ra ppe
d ité
o le
min i
agri culture
can ada
rus se
na ires
qu' on
objet s
siè cle
ma tiques
dis position
c ite
jus qu’
s' il
k il
du cation
utilis és
land ais
in titu
pu blie
ma térie
m ètres
qu et
son s
clima ts
docu ment
jose ph
pro test
roy al
ci vi
l' importance
utilis er
h ou
stru ctures
ao ût
con clu
g ènes
t ance
prob lèmes
b rés
té moi
stra té
derni ères
capa cité
super ficie
concer nant
b lo
b om
ter mes
h am
ber n
ê che
qu o
caractéris tiques
honne ur
cro is
rec ord
mon tré
ni es
lon gueur
espa ces
v è
dou te
préci pit
ma x
sé lection
import antes
ch ée
rempor te
mouve ments
quel que
des tin
person n
indivi du
analy se
influ ence
dé cor
f ru
exploit ation
l' as
ma ître
dur ée
se e
télé vision
ob ser
républi ca
mi ques
da me
pu l
soci ale
ri che
re lation
com ité
b ur
bay e
dis tri
v ac
ce ment
k o
ch ron
ch r
f lor
pra ti
te aux
forê t
ci le
qu oi
continu e
bibli o
hy po
pro ches
ci ens
cré er
s alle
se aux
prob lème
nation s
o x
h ol
pé n
exp lique
con duit
ins crit
ra sse
l'a f
table au
eng age
si bles
l' aide
alleman de
clau de
hab itu
i g
lumi ère
justi ce
so li
espè ce
ar ab
signi fie
mu m
cie l
commis sion
com ment
département al
béné fi
on om
mon tagne
for tement
cro issance
tour s
dé signe
ch ap
u me
nom in
chin ois
c ités
ch asse
territ ori
ru p
ut es
som met
se urs
littéra ture
mété or
objec tif
scienti fique
d' ailleurs
er ie
ci des
a la
ti tres
ra ble
dis ci
kil om
entra îne
fédé ration
cu les
tr ême
enregis tre
can al
rus sie
v és
au tant
i cul
dé p
li gue
com par
sa inte
li vres
ré alité
liber té
imp éri
c roix
col labor
élé ment
issu e
t ères
te lles
ph ère
religie ux
région ales
découver te
y er
nor ma
ma î
con cent
p om
ex clu
ap proche
trib un
com pris
propor tion
chac un
mis sions
diff icul
catho lique
don née
dol lar
avant age
sor ti
is ent
appe lle
cent ral
mo ts
pré par
ver sa
par le
let tre
at test
ô ne
rom ain
représent ant
classi fication
s cé
con ç
b la
h os
mon te
n' y
l'in térieur
c tes
éta tion
effet s
britan niques
nom mée
l' occasion
conna issance
europé en
pas sant
ac cu
méth ode
conf lit
ti ens
et h
compa g
peut être
ri ca
con sacré
an i
monu ments
é coles
er t
constitu é
ancien nes
tour n
nation ales
propri éta
l' im
pie d
sig né
chans on
s h
n' ont
jou eur
ct ur
rom aine
ca démie
p ilo
thé ori
annu elle
fi x
al ise
diffici le
sci ence
ss ée
appar ition
histori ques
mais ons
cé es
l our
geor ges
s és
ist ère
méde c
ri ches
pour tant
pl antes
nouve l
w a
vis ite
ris ques
ser ont
arri ve
chr ist
étr ie
ma téri
n is
o y
c aux
biblio thè
loge ments
reli gion
re prend
soci al
commun al
aut onom
cri tiques
sole il
om étrie
cul te
décis ion
nu clé
puis que
se cré
l d
français es
comm and
ré cent
eff ica
re ti
mon tr
ra re
hô tel
décla re
cô tés
vérit able
d its
con grès
s'é tend
si mi
l'é nergie
com porte
mort s
syn di
ma inten
autor ité
vit er
ne lles
te ments
lo t
d g
ni co
royaume uni
ouver ture
li ques
d' entre
vi dé
é cole
ar mes
ou til
ran g
dimin u
phénom ène
milie ux
défin ition
ci vil
con texte
m our
off ici
pouv ant
résist ance
ap pr
d' en
bâti ments
g as
précipit ations
cul p
ter mine
lo cal
temp le
s ch
au d
es sa
scé n
sol dats
illi am
roy ale
st and
h al
réalis ée
ve ut
ten tion
o d
re ine
th om
ra is
l' am
s culp
piè ce
b ro
sex u
per t
f roi
ves ti
aug us
de me
conf ér
re prises
japon ais
f la
officie llement
tis me
f ant
nature lle
dy nas
o re
mé tal
un ité
popu lations
mondi al
y me
philosoph ie
ch ite
paris i
se ction
is ée
lo gne
g ol
vé hi
jou er
ri vée
s pati
chu te
e ut
lu tte
d ère
l'é lection
chris ti
di men
jur i
institu t
dollar s
réguli èrement
cré e
soi ent
g or
w illiam
sor te
pre uve
lé gu
mala die
l' aire
qua tri
quit te
e f
n our
sou ff
con cur
publi cs
gra tion
l' organisation
v ite
tota le
l' espace
constru ite
b ér
pa les
constru ire
ren ouve
actu ellement
il l
tour née
pos ant
dev ait
tis te
at h
suff is
pha se
quatri ème
supé rieure
bas se
appli cation
kilom ètres
s' y
con vention
gu i
an ima
par ce
re jet
is er
ç a
poli ce
contraire ment
cons ci
dis tance
i ale
au de
aff ec
permet tre
ta ine
mes ures
pos ent
fut ur
da vid
alis é
établis sement
h in
lé gi
arti cle
fon dée
tan ces
moy ens
mar ine
apparti ent
rejo int
am ment
établi r
peti tes
l'ar t
mar che
mém oire
l' idée
con nus
profes seur
c ts
numé ro
sa c
mé dit
famil les
t tes
illa ume
gu illaume
cou leurs
der rière
lo s
éle vé
aéri ennes
k er
qué bec
lar ité
cle r
produ ire
im médi
parois se
ie l
pro pres
prési denti
com é
di a
atte indre
qu ences
mu sul
projet s
mar tin
an o
é toi
per for
fé min
ou ti
euro s
tempéra tures
ti fi
b elle
né go
s ée
val u
tradition nelle
compos ée
mo bil
ri ve
fle uve
s tre
som me
ci de
fron tière
re trouv
pos ée
fr ères
and ré
bâti ment
consom mation
économ iques
h it
électri que
suiv antes
my th
mon ie
agri cole
reç u
loc aux
diff u
progres sivement
ré forme
d ar
ren for
gr ille
v on
comple xe
topony mie
a ma
quo ti
s is
c ru
su dest
v ont
ré pu
dépend ance
guer res
lég en
désign er
distribu tion
volon té
man che
sup p
dé si
lang age
l' europe
des cription
l'in see
vi o
at ti
char gé
monu ment
ac cor
l'ar rivée
in vent
vi v
consi dère
c f
comman de
is o
fait s
scienti fiques
seu ls
é po
fond ation
océan ique
s it
fa veur
con tient
jeunes se
appel és
dou est
su douest
mi cro
fon ds
re van
fi c
l ines
de mi
imp lant
man que
souver ain
il ité
conom ie
s ang
m ans
bu reau
ro che
ré vé
lon s
ra mi
l' assemblée
l' utilisation
bou t
tien nent
dévelop pé
l'in dustrie
augment ation
résulta t
diffu sion
contr at
g ers
co s
pos sé
mb our
re cue
ha me
imp li
ra s
s sin
ro is
cit oy
cour se
na po
no te
revan che
d' environ
ouv re
con sul
d' europe
. c
pré voit
concep t
par ents
secré taire
bi ens
jus te
au dessus
vidé o
four n
n ’est
d' autre
con ception
lesque ls
pré fe
l' ad
ri ce
tom be
rest re
l' ancienne
g le
ca tal
vi enne
différ ence
is ra
itali en
o ine
partici pation
hu maine
é cla
mo teur
re vient
av an
vi end
p és
photo s
é dition
mé tho
nation aux
rich ard
mé lan
v ali
é qu
réalis er
ro ck
pe l
ra ine
s pi
dis cours
no tion
per man
suiv re
nico las
è tes
graph iques
est re
peu p
éro port
an tique
sau f
anti qu
comp lé
du es
lais se
représent ation
bu dg
ré alise
d' avoir
z a
enti èrement
propriété s
ca de
déc ret
comp tait
ais sent
sa cre
par ta
can a
concer ne
pe ine
f ête
j .c
k ar
ouv rages
rapi de
la ise
éco logique
thom as
hu man
tribun al
unique ment
assu rer
idé es
li v
l' allemagne
artis tes
éle ctor
at tend
den ses
ma xi
bre ton
fa c
nord ouest
for ment
ni er
élu s
g ou
v ise
médit er
opéra tions
rempla cé
nor dest
é difi
compéti tion
la ge
ten ti
tra in
py rami
j é
d û
qu és
plu vi
règ les
am bi
ort ho
l' association
poi ds
sa tion
enti er
possi bilité
assa ssin
dé faite
end ro
département ale
re ux
dom aines
deven ue
x ion
mar ne
méditer ran
napo léon
mé da
au teur
cy cle
vi r
blan che
vari été
établis sements
rur ale
accue ille
recher ches
po tenti
des ser
ré seaux
y o
l'ex ist
bi le
v et
& gt
is é
por tée
mis es
bern ard
actu el
dé di
bra s
colle ction
l' hé
mété o
distri ct
man dat
fran cis
épo ques
jui fs
évé nements
gi le
ex ception
g enti
tri che
vie ux
am is
fer me
gi r
ar mées
m â
europé ens
accue il
w al
acces sibles
siè cles
utilis ant
divers ité
l'exist ence
min istère
collè ge
no y
ta tions
l'a cadémie
pro fonde
hô pit
dev rait
sovi étique
le y
che ment
déc en
vi vant
ve il
rais ons
lan tique
ca thé
dé pendant
mo des
libé ration
candi dat
pla teau
l'ab baye
ma gaz
occu pe
r ence
f t
consé quence
l un
équi val
simp lement
è ce
mon d
change ments
l'au teur
g ren
alli ance
con ver
ja mes
x ique
rest er
ta ires
res sources
cons iste
fonction nement
l'ar chite
co ver
n oire
geor ge
civi le
ces se
compa rer
ceux ci
par vient
l ine
ant é
fais ait
distin gue
bou le
cathé dra
pouv ait
sa tel
c ence
indi que
ob tenu
du l
priv il
psy ch
gouver neur
pr ai
ré fu
st oc
fonda ment
alis ée
l' œuvre
capit aine
person nel
mé ta
ac tifs
l'é volution
di z
officie lle
i ra
infé rieur
modè les
détail lée
li ers
dis pu
v ité
u ves
se maines
dou ze
for tes
vo te
ad res
suiv ants
i ge
com bin
chans ons
bibliothè que
rec ense
dynas tie
imp or
l ite
démo graphie
f us
équi pes
cou v
par tage
la ble
région al
l'ar ti
vas te
autor ités
ri ers
classe ment
matérie l
l' air
v ation
g an
at om
cor ine
ch ent
po is
l'ac tion
rom ains
tr és
p êche
quali fi
société s
considé rée
ven u
commun iste
massi f
no bles
in aug
cul tiv
ar ché
antiqu ité
is sement
beso in
cr ite
cep ti
è dent
ci me
hu main
par am
l'é conomie
ce ci
début s
obli g
dy na
s il
ex is
b os
par ler
pays bas
con dition
com por
quanti té
aména gement
coup le
lin gu
tra duit
déc lin
tu s
sa la
hé ros
t t
si f
cas sin
marqu é
é vi
soci aliste
it re
v ég
posé es
feu illes
orig ines
affir me
ju ge
li aison
fa ci
inf ra
ég lis
églis es
deme ure
è ge
par avant
au paravant
un ités
r ares
ac cident
arrê té
pens ée
in é
é volution
fran ch
utilis ées
o les
d’ autres
mau rice
accue illi
l'un ité
ac te
r ont
étudi ants
quarti ers
hypo thèse
vent e
crip tions
ré cit
que ment
par ten
fran c
min utes
phon e
p â
meille ure
ox y
f un
de france
ves tis
hu mi
fré quent
tra its
d'at traction
ac teurs
l' été
décou page
ali er
graph e
ten us
v ous
dé bu
respec tivement
villa ges
ren om
dev int
éli min
ê tres
météo france
p et
gu y
i b
météor ologique
d d
dévelop per
d’ occupation
tr ente
perfor man
w i
men a
nom bres
supp lément
pr un
is sus
re le
norman die
ré di
d' où
terra ins
k ing
oise aux
provin ces
intro du
cathédra le
pro to
for ts
le m
ac teur
dé place
ver t
élec tron
ô les
l'ar rondissement
culture l
ir s
ma int
maint enant
aude là
ari o
co û
cassin i
mon ta
l'é tu
z i
vra i
vari ations
publi cation
déb ar
di enne
con cours
norma le
uni verse
tron om
ty mo
ouver t
commerci al
ce au
lu xe
mi r
médi aire
use ment
négo ci
n y
alex andre
ac cès
réalis ation
mari time
pos és
y a
arch ie
parti s
navi res
l'ac tu
em prun
al é
t ons
prin temps
cés ar
lo cales
éche lles
hom mage
ref use
d'ar t
symbo le
c lin
l' emp
om b
pas sa
de main
t ante
s port
al pes
tour isme
pa rer
compos ite
bio physique
ré action
r ité
pro cès
f leur
conta ct
vi vre
pluvi ométrie
g am
l'é le
flo tte
nature lles
m ène
dépu tés
iv es
pou s
inté g
ren contr
au to
multi pli
ex prim
spéci fique
s ins
médi é
des tru
ran d
b ron
prési dence
re prise
cl c
w in
cit er
ant oine
av ent
dé mission
dépu té
met tent
rie ures
budg et
ex trême
l'in té
tr ône
li bér
l’ état
al o
l’é volution
rest ent
trans fer
considé rable
écrit s
per d
améli or
y ou
para ît
w o
au str
ju di
pé dition
per ç
re vue
com pose
initi alement
me u
lit tor
ré vol
évolu e
itu re
maje ure
pos ses
inter net
gu it
ro vi
fer rovi
ra con
v ins
présent s
major itaire
l'é che
mon na
pe ur
ly cée
intitu lé
lesque lles
é ditions
bour ge
cal cul
formu le
f leurs
moder nes
m ys
mo lé
présidenti elle
l ille
d'état major
ag er
cro y
responsa ble
dé mon
br un
nom me
tou lou
métho des
dé ta
l'étu de
na is
four ni
dé non
stoc k
con ne
fi dè
ré cu
lè ves
ger man
di vin
es time
sa ble
l' ign
pa ci
m ité
ré uni
priv ée
g ale
min es
us ine
cul tures
é viter
gn er
ma d
ple in
y eux
fabri cation
de hors
g ens
capa ble
conser va
ble u
bom bar
s ports
lé ans
ray on
tend ance
l' institut
r ise
ur ation
géné ration
ré comp
d ation
nat ur
flu ence
l'in fluence
cu is
ré un
vi ce
ou e
l’ occupation
rejo indre
expéri ment
connu es
é chan
sa ires
l' administration
ois eau
prai ries
or b
légen de
qu ar
su g
i a
etc .
v ées
circons cription
é car
but s
sa in
mar se
dire ct
ti ème
match s
ne y
reven us
l' entreprise
re ce
men ac
li on
plan te
li és
club s
h el
c ise
con quête
li é
s' op
arti cles
th ème
don na
mathé matiques
tourn oi
ord res
cant ons
dra peau
en vis
utilis ent
alli és
assu re
caracté rise
influ en
soci ales
nor me
elle même
confér ence
don nant
occident ale
relie f
a re
cime tière
al bert
restau ration
ni ers
jard in
ér u
fil les
ta s
se maine
communau tés
volu me
pein tre
prés er
cin qui
port es
offi ce
ren é
constitu ent
officie l
autom o
pé tro
médec ine
l' op
t ori
instru ment
al gé
étab lie
ima ges
len demain
télé vis
per du
dispon ible
k in
dis que
i ti
médi as
pe int
cu laire
n ar
men ée
cé der
lég èrement
s œur
b lé
réalis ateur
stu dio
cla ire
comman dement
pr en
magaz ine
i ze
ple ine
ca ire
fonda teur
l' usage
h été
ch im
hété ro
ra tions
in car
reconna issance
en du
dé pla
conseiller s
ï que
sus cepti
fin it
qu ées
fran cs
l l
ili bre
jusqu’ à
au ra
w il
comp li
go th
cons tan
é vent
correspond ant
qu ie
enf ance
é ten
nomin ation
h ait
in formations
sou hait
l' image
peu ples
hôpit al
tu e
ver sions
olymp ique
né ga
sui vent
pri me
s tri
lors qu'il
maxi mum
personn alités
ti le
bour go
p ire
f lan
l' agriculture
ass is
cinqui ème
di am
pla ine
cal cu
cho se
pra tiques
o rer
disci pl
d' intérêt
mon as
po inte
rou tes
judi ci
l' ag
af rica
ré vè
pé es
conna ître
vis ible
clas ses
docu ments
chiff re
n' était
dé te
pein ture
li qui
d un
tota lement
préfe cture
man uel
lo g
qu' elles
clima tique
difficul tés
lim ites
ju me
gr èce
compor tement
st ar
pol lu
che val
fré qu
dé gra
géo graphique
ph éri
organ ise
ber lin
cal end
mar ch
inte lle
intelle ctu
pouvoir s
rasse mble
autor ou
règ le
sé jour
littéra ire
a ï
pré cise
s' inst
con test
correspon dent
n an
princi pes
on e
défini tivement
& amp
p ense
religie use
succes sion
pré vu
quali fié
cha î
europé ennes
pro lon
génér aux
chet s
bel ge
ch ante
illu str
é sie
aff lu
mon tée
prom o
brés il
d' euros
ab ilité
dat ant
il it
alis és
ima gin
met tant
décou v
per te
cri re
ver saire
v end
par cours
in forma
se cre
interpr étation
contr ô
pr us
identi té
ry th
g ère
hau tes
clima tiques
histori ens
exemp les
mo dé
ta le
mar c
voi ent
soci aux
chef s
su re
al lu
mil it
éta pe
or ité
dérou le
né er
é lèves
pour suit
jour née
al lant
hom o
crit ure
bor de
inspi ré
administra tive
publi ques
plan ète
nuclé aire
hu mains
v ait
t ang
ju les
ran ce
numé rique
déc ès
progra mmes
équipe ments
l' italie
for mée
posi tif
dipl om
ang laise
im pa
jac k
sta tions
album s
adap tation
bourgo gne
con tro
essenti el
appare il
ch at
ph ar
car bon
ab solu
hô ne
concer t
tra ver
tra fic
représent ent
vic times
gra ve
rési d
l'ab sence
de viennent
di ens
qua si
institu tions
co ût
ma ter
vict oires
et s
l' u
ces sion
appar aissent
histori en
transfer t
organis é
rési dence
con vain
décou vre
combat s
rom ans
aff i
grec s
u elle
sé nat
ch è
ist an
hau ts
au quel
sé ries
mar k
instru ments
l'arti cle
pre uves
tra verse
associ ations
avi ons
b is
lit es
publi ée
multi ples
grec que
habit at
collabor ation
sen sible
représent ants
pro vis
tr om
expéri ence
in de
carac tères
chac une
cro ître
gi es
es cla
phon es
a che
sy l
sta tis
py ré
v ér
cellu les
ri d
ç ons
réser ve
fa ibles
li ens
mau vais
bou dd
z z
er i
industrie lle
li ées
br ux
mon o
anim al
for d
intro duit
ma chine
al titude
étrang ers
li ée
ques tions
pro cla
l' environnement
man n
mo du
olymp iques
signifi ca
var ie
gi en
am our
stand ard
a tives
emp ê
fa ces
regrou pant
cent res
ori es
param ètres
associ é
jou é
second aires
rie urs
manifest ations
é tro
appel lation
cu re
r in
é mi
reven u
faci lement
ac quis
constitu ée
aliment ation
. .
ru es
ais sance
toulou se
la urent
é tymo
en vers
puis s
pas sion
ph ra
dépar tements
tran si
consé quences
cent s
gn ent
po logne
l its
pa ges
re traite
v aut
ré d
ph ab
œ urs
milli ers
dispar u
catho liques
ar ables
calend rier
tro ph
indivi dus
évolu é
er n
command ant
p alité
munici palité
pl ans
chef lieu
é pi
dimen sion
éle ction
tour ne
bron ze
mécan ique
s ti
l'ac tivité
travaille r
ren aissance
espagno l
lim ité
recense ment
fin ance
to t
ac compagn
trans fé
di ale
au raient
servi r
ma ch
no ter
ap pro
ma ires
péri odes
catég orie
cali for
bran che
présent é
th ur
bu l
éle vée
don nent
a dul
origin aire
dan ge
hé ri
champ s
vin g
é change
im pose
ala in
ac compag
déb at
la bel
sujet s
l' entrée
s è
an a
pu re
immédi a
immédia tement
h ori
sou ha
proté ger
n antes
situ és
ou l
d avantage
tour nage
compa gne
consci ence
n ance
hon g
montre r
ve u
ch ale
w n
é d
ab rite
l une
mi x
maî tres
ô mes
urb ain
inter ne
entre r
â ges
bais se
alis er
l’ a
com portent
marse ille
pl ant
fait es
loc alité
s oir
appar tenant
fru its
étoi les
fi xe
sign al
l'a éroport
ac tive
doc tr
égyp te
o k
ma ges
lo giques
k m
th i
cô tes
r ons
urbanis ées
spi rit
loc alisation
in age
s ter
déc len
bénéfi ci
at oires
progra m
n' en
me xique
térie ure
mont ant
int è
fi ction
ès es
comp ter
effectu e
commen cé
ais ons
augus te
caractéris tique
in su
régi ment
di oc
jean ne
quit ter
m ins
propriéta ire
itali enne
montr ent
cou vre
arab e
vis ant
répon se
méde cin
sy mp
by z
mas cul
améli orer
an ie
centre ville
toi le
ass ist
ban que
va sion
den tique
i dentique
complè te
mar cel
circu lation
d' années
s û
réfu gi
rédu ire
par u
mi cha
beso ins
re connu
bourge ois
ve ille
ab ond
vu l
cé dé
die ux
l' enseignement
chois i
vic time
quin ze
réf le
z é
meille urs
blan cs
lan cé
f ar
l’ église
dus tri
sys té
tr ie
con tenu
re trouver
mon ter
maje ur
pa le
le cture
viend ra
dou ard
al d
w ard
découver t
chap itre
travers ée
aff ron
ré el
ma tin
pri maire
concent ration
dispar ition
in ond
sa de
an sion
exp ansion
p ôle
w ay
hétéro gènes
ma c
fin i
autre fois
présent ent
on ze
scén ario
produ cteur
d'ar gent
g ab
ouver te
ra i
chré tiens
artis tique
législa tives
march and
ter restre
chiff res
re pris
as si
in vestis
re trait
accep te
exp lor
lis tes
cer cle
tradu ction
a chet
nive aux
situ ées
attest é
l'ex pression
exist ence
l' ins
du ché
dé chets
mag né
parallè lement
po lon
tri chi
a î
ch ir
endro it
men er
ac tif
can on
matéri aux
mar ins
at es
favor able
iss ances
na z
car din
compos és
s cr
uti n
scr utin
su ites
pyré nées
fa cteurs
fon taine
con tenant
brux elles
si mon
pro pa
noir s
qu art
ch ance
conser ve
destru ction
vain que
ac tes
jé sus
g ard
pres ti
ser aient
rég lement
le a
f l
ré union
su bi
bas es
qu' au
conç u
mbour g
institu tion
dan iel
l' hôtel
aéri enne
récu pé
provo que
ren du
partici per
vé cu
mar éch
ré duit
la cement
catég or
es prit
w s
ven us
ré ce
mai rie
ro se
po ète
inté rieur
statu e
ti c
ren on
ty pi
com prendre
comé die
in dépendant
sal les
micha el
l'es prit
l' issue
per spec
ré ta
m s
semb lent
l' univers
autom ne
d’ hui
mainten ir
ici le
dom icile
mar in
catég ories
re ction
pro ven
inter dit
trac es
ar iste
l'in dépendance
sc ènes
j i
as h
ma il
dirige ants
et /
domin ation
et/ ou
orient ation
k h
ro ger
pec ts
transi tion
sa ints
mor ph
vi de
m un
évo que
parti sans
re m
collec tif
tri que
pro position
second aire
si as
pa tron
étrang ères
vé ri
ra ce
fra g
po lit
glo b
i ran
cides sous
au lt
hen ry
dé légu
lie ut
présent er
des sous
fi chi
épis odes
défin it
orient ale
mo di
ten ait
let te
s'é lève
mé ri
w est
off en
p ur
a tiques
réce mment
priv é
tent ative
complè tement
é crite
f os
lu s
ag on
fre d
anis me
thé or
ca mb
f rap
v endre
ap préci
se cteurs
pro f
itu de
étab lit
mélan ge
grande bretagne
tar di
révè le
col or
chré tien
outi ls
ce aux
infra structures
ré pé
ad jo
re lève
au trichi
trou bles
ja une
aujour d’hui
journ aliste
lan cer
céré monie
catégor isée
cent aines
ré pert
tra ins
for mat
monna ie
com prenant
religie uses
v ence
assa in
pi on
con qu
arri vée
l' imp
conserv ation
na it
gn ée
mena ce
parallè le
montré al
tra ités
for mant
famil i
gra tu
pla ces
ch y
m urs
ag ent
ga gne
ca tas
ferrovi aire
gra m
cou che
aux que
popu laires
milli on
lie ue
trans formation
présent ées
ant h
é loi
na ît
l' o
instal lations
enne mi
condu ite
av en
l' antiquité
précis ément
vo iture
oblig atoire
man us
dé fi
im pression
cherche urs
offici ers
résid ences
man ie
néces saires
appli cations
spéci fiques
munici pales
maî tr
so laire
assain issement
com tes
ant on
véhi cules
tom b
pla s
ajou te
f rom
concer ts
colon ie
di c
milli ards
cor por
ence inte
l' autorité
ru is
sa voie
do s
ruis seau
fe ction
sou venir
sa tis
reven di
r aux
chré tienne
é ner
den is
exist ent
commerci ales
géné tique
tin g
alter na
w ar
détermin er
siè ges
f c
por ta
sal on
ver re
ima le
béné ficie
co opération
is sait
g us
desti né
rê ts
gen res
ré pan
dyna mique
augment e
d'al titude
fédé ral
é tiques
ter ie
gu é
citoy ens
lle rie
es sais
l oir
di on
at lantique
ré cla
nour rit
s core
sig nes
rec ru
cho ses
cour ants
enti ère
impéri ale
froi d
sais ons
fun éra
par ent
gn y
rapport s
se l
ari at
pour quoi
straté gie
av is
réus sit
ent er
que mment
k s
sa x
représent é
l' angleterre
nor mes
sc and
ô ts
fin an
ign ant
autonom ie
l'in di
fra is
d' angleterre
ven tions
u il
fourni r
diminu tion
promo tion
con fon
ban lieue
mala dies
candi dats
l'é mission
ir lande
ex tension
vu es
suff rages
pro vence
témoi g
par te
l'é ducation
maréch al
pres sions
origin ale
pla cé
we b
inté rêts
d' oiseau
culture lle
re pose
succes seur
expli quer
fron tières
bap ti
lor raine
inter nationales
propriéta ires
lais ser
ch estre
g ri
augment er
révol te
ra les
l'af faire
compé ten
direc te
compéten ces
juri dique
reg ard
ri ères
ist o
cri ti
fré quence
réus si
diri gé
borde aux
pré tend
pilo te
german ique
in génie
organis ée
ri val
n ité
souha ite
viol ence
t ter
mos phère
pi c
dè rent
si ves
arch ives
ré su
n au
déci dé
fré quemment
cour te
déf en
monta gnes
chi mique
composite ur
révolution naire
ca bin
instal lé
constitu er
sur veil
sor tir
br û
d au
particuli ère
de tte
infé rieure
as pects
administra tif
& lt
mo indre
tu é
débu te
b et
fau te
po sait
ff e
pro venant
navi re
califor nie
c tique
celles ci
ba ie
s' appu
musul mans
campa gnes
vari able
f oi
gé r
se cours
ar rière
ca lais
inter médiaire
d' ab
simi laire
compag nies
qu’ elle
région ale
f en
décla ration
procé dé
arti ficie
objec tifs
la t
lieut enant
représent ations
re lle
ré col
syn thèse
desser vie
th ie
rempla cer
oc cit
a sie
industrie l
vict or
ortho do
rup tion
l'ex ception
prison niers
pier res
l'in verse
mar ais
un s
tel li
te in
versa illes
colon ies
épis ode
bap tiste
littor al
t â
c ran
constru its
isra ël
re prendre
k u
la issant
thè mes
comple xes
u els
ex position
de mment
fant as
simp les
ï s
trouv é
manus crit
por tés
l’ histoire
ch ées
c lan
tro pi
instal lation
ti re
re monte
détru it
ther ine
ca therine
électron ique
l' ai
g â
sur nom
catal o
couver ture
possi bles
é valu
l'af rique
sou tient
puis se
méda ille
ri ques
déf end
j oi
étymo logie
lon gues
organis mes
comp lément
rédu ction
ver ts
rare ment
olo gue
l'é criture
classi ques
pla te
l'a vi
pyrami de
dite ur
sala ri
représent er
noy au
ver ti
ar n
limit ée
mi gration
lu c
person nelle
fa cul
l' opposition
chev aux
su ède
portu gal
uni es
ar bres
intè gre
vi gueur
d al
ga la
seine et
ré no
poss èdent
é nergie
chev alier
profonde ur
spati ale
car ol
déri c
d ites
iv re
consé cu
d' honneur
hos pit
b ob
profession nel
américa ines
seigneur ie
b ai
pla is
lo ie
an c
commen cent
musi cale
doc teur
sépar ation
différ ente
ber g
recue il
ot tom
ouv riers
rus ses
da ge
rup ture
r hin
automo bile
conser ver
fe me
dent s
systé matique
min ation
communi cations
ex ter
suiv ie
célè bres
conser vé
carbon e
espagno le
musi ciens
d' inter
cend ie
ve ux
précédent e
as pect
mani fes
l' océan
condam né
notre dame
v ard
pos tes
d' o
tour ner
signifi ant
syndi cat
néces s
di um
om e
pri mé
y ant
gar anti
pet er
gen ève
diam ètre
en ga
racon te
s k
techno logie
archite cture
res pect
effectu er
seu les
pro grès
lance ment
s’ est
attend re
urs s
pau vre
indi ens
v ine
clas sé
en va
ali ers
phénom ènes
l'in de
observ ation
pré fé
lé ger
rela tive
pen ser
g os
fi ée
ing ton
f ur
pè ler
christ o
cons tante
bil an
serv ant
néer landais
ap prend
la tine
po sa
accord s
bais ser
su éd
d' an
in no
para ître
en voie
défin ie
go ût
rap pro
tr anger
fin al
île defrance
chale ur
divis ions
l' espagne
qui ert
conf ron
cri vain
lis me
tot alité
jard ins
gau lle
concur rence
che mins
paci fique
musul man
accompag né
l’ on
l ente
fis c
physi ques
b lin
dessin ée
adop té
b ie
mou lin
sé na
s ché
de gré
n' avait
fil i
l' ouverture
l' apparition
démo graphique
é labor
nobles se
fa me
di er
fré déric
vi an
boudd h
cad ré
fi r
tr ons
lingu istique
l' effet
peup lée
specta cle
républica in
écri re
anne aux
appare ils
cla ssée
ar me
pro vient
considé rés
seigne urs
capit al
associ ée
re l
ten sions
a h
sub it
ca lement
av ance
démocra tique
profession nels
ex tra
emb ar
chaî nes
è le
et é
eux mêmes
éta ire
simp li
logi ciel
g ais
bas sade
sou mis
limit ro
ma tières
déb it
pay sage
av o
bas é
sus pen
particu les
é vêque
l' agglomération
sou tenu
in dustri
ti les
human ité
mit h
dan se
démocra tie
chois it
ven ue
la i
ma ti
ca ge
ss és
gh t
ang lo
hi p
mach ines
inter commun
cr ist
fran k
char ges
inst au
administra tives
décen nies
r ôles
vo cation
i ch
d’ être
a si
re use
interpr été
japon aise
ban des
minis tres
industrie lles
par faite
at ten
gu in
lais sé
cor ée
dom es
rap proche
diffus ée
at or
fa ç
appr enti
qu ilibre
diri gée
conf lits
th èses
entre tien
contempor aine
bas ée
mo teurs
pas sent
vi vent
s' em
doctr ine
employ é
mi di
be aux
men é
dispon ibles
informa tique
lin g
espagno ls
l'é vêque
no tes
portu gais
feu ille
comp let
nécess ité
suc cède
ru g
l’é poque
perspec tive
philosoph e
fig ures
ne ige
l’ armée
si fs
judici aire
per tes
vent es
organis ations
occu pé
dioc èse
éche c
é gi
re fu
atta ques
i o
lon e
extrême ment
né g
ge ant
lin é
p lique
te m
destin ée
d'or léans
tr ent
ex ac
pro posé
envoy é
méditerran é
vér ité
sa lem
produ ctions
é douard
ci ation
inf ant
c '
infant erie
chron ique
chan teur
l'éche lle
li re
ash ington
w ashington
l’ ensemble
commerci ale
suffis amment
mar ti
ja zz
potenti el
difficul té
anima tion
mon archie
gér ard
anal o
décla ré
in ion
pay sages
b elles
échan ges
for ter
cabin et
dé sig
mar chan
inté gré
prépar ation
logi es
vég étation
g rés
traditionnelle ment
pa vil
faç ade
pro s
h is
autorou te
rug by
fisc alité
ca ts
ter r
on g
la ris
électri ques
ci après
mil an
b ab
logi cie
chi miques
secre t
responsa bles
i c
é vê
y ves
indépend ance
b it
man d
cour on
l’ un
rou ges
li bres
collec te
rempor té
tra ditions
personn alité
rac ine
ab s
de viendra
su is
b lu
caractéris ant
bo t
flu x
san ctu
as tronom
d' espagne
y e
déf endre
re connue
di ques
sa tur
privil égi
pén insu
reli ant
escla ves
d' activité
défin ir
d' affaires
r hône
myth ologie
territori ale
ma y
inter nationaux
bar on
pré hen
emp lois
constru ctions
ger main
erre ur
u k
département ales
responsa bilité
l'ar chi
fin ances
hu maines
pa pier
dau ph
f êtes
bi ais
yp te
anth ro
n’ a
pri mi
mar chés
éri r
colon el
ratta chée
cou ches
is mes
to lé
mé tra
bio diversité
son ne
â me
dévelop pée
munici pale
s ki
trans mission
gé ologie
tou che
sur es
pays ans
ex pédition
complé tée
é missions
re cours
profession nelle
ch anger
lar d
w an
str as
trouv ait
chin oise
lo gement
w or
réguli ère
d'é nergie
engage ment
d r
record s
la ï
quoti dien
dé signé
s’ agit
distin ction
œ il
ordin ateur
fémin in
for tifi
couver t
effica ce
origin al
éta ge
pl ur
satel lite
gi o
organis me
pu s
ab outi
jo han
eff on
t unis
symbo lique
fourn it
no ël
h as
pouv aient
t ence
al lait
découver tes
ur ée
distin guer
ti no
s lo
vesti ges
christi anisme
reven ir
vale rie
l' enfant
l'archite cture
rasse mb
char te
l'ex térieur
l'av en
circu it
sé cher
ta bles
g il
d’ établir
parisi en
a des
p iste
anne au
cent r
répu tation
posses sion
chim ie
péninsu le
financi ère
é mer
volon taire
hé rit
discipl ine
différ ent
théor ème
tré mité
en cour
di manche
v ages
étudi er
gau lois
l' historien
divis é
rappe lle
d rome
di os
lé gion
sé v
du ction
pi ano
n' existe
mon s
phéri que
illa ge
senti ment
d ait
mini mum
s'inst alle
po ta
ab eth
hame au
offici er
dé es
l'a ff
rece voir
orb ite
liqui de
univers itaire
conna issances
sa ce
ph es
pois sons
po ésie
û te
ch ô
chô mage
exemp laires
prin ces
w er
to p
v ités
da ise
re aux
ven ise
appu i
é dit
véhi cule
c' était
dési r
dan e
est er
gré g
fou illes
ci ce
sup port
vice président
aliment aire
ist oc
l' «
mé na
h ard
ch al
musi cal
variété s
am ou
l ins
bil ités
d anger
thé o
majoritaire ment
parti ellement
s' ag
d' études
effon dre
j éru
référ ences
jéru salem
p il
gag ner
ar mé
mos cou
cré a
dis per
stras bourg
é ducation
cau ses
particuli ers
provis oire
ray mond
entraîne ur
car ré
char bon
gra de
cla ir
arab es
hori zon
différ ences
cardin al
hong rie
enregistre ment
christi an
ré formes
c ili
l' opération
ex pression
employ és
tro phe
itali ens
l’ in
es pé
vier ge
mi ra
pou sse
l'ac cès
partici pé
ci ers
ex il
m ètre
rempla ce
ni en
g y
ré solution
vainque ur
conse ils
n ois
af faire
ag o
é tend
b ris
écrit ure
crit ères
étu die
fac ilit
journ aux
ju li
organis er
l'en cadré
vis à
visà vis
s tal
concur rent
co ali
culture lles
inten tion
méditerran ée
maje urs
présent ation
par ole
patri ck
rend ent
expéri ences
ju lien
i en
correspond ance
bon a
d'au tant
marqu is
ré ci
dé sa
théori es
ins pire
ca o
techno logies
ag ents
ange les
avent ures
li cence
mb les
viv ants
parlement aire
annon cé
mor ale
tri ces
par ts
ro ï
mari a
métro polit
l'é dition
retour ne
accueilli r
luxe mbourg
ab sor
im possible
vois ins
dur able
manifes te
sur faces
compé tence
sé le
is tiques
g né
a po
ch as
po table
desti nation
gam me
con cile
ch t
apprenti s
pré cie
négoci ations
gor ith
ent ôt
présent es
bi entôt
envi rons
d' obtenir
lan daise
gar der
s n
solu tions
table aux
consé quent
di alo
d' agglomération
vo ls
pro je
appr ouv
cr ète
cinéma to
pour raient
dimen sions
ryth me
do re
t un
célé b
nie ff
z nieff
ou bli
adres se
des sins
républica ins
s' intéres
univers ités
phab et
ma cé
ré cur
monas tère
l'archite cte
por trait
for més
ar gent
l'a mi
l'ab bé
mo ines
na m
i le
s ha
uti le
remarqu able
sou terra
civil isation
puis sant
nu l
tra ce
sovi étiques
sou tenir
qu’ ils
ph il
précis ion
deven ant
l' exploitation
ar re
tro y
u ellement
hal l
pl omb
t ants
rap porte
tradition nel
l'ex péri
sup prim
ré c
réc its
et tes
loire t
an gu
l' analyse
diz aines
ex térieur
gol fe
nourrit ure
&lt ;
l'ex position
vac u
renom mée
s té
exclu sivement
ent end
can cer
e urs
d' afrique
s bourg
cor ne
ite ment
gn on
tino ple
constan tinople
ro tation
é lève
labor atoire
puis san
adap té
puissan ces
offen sive
my the
autom atique
pr ie
n ap
ar gu
tent er
voyage urs
d v
straté gique
cin qu
ti ble
iss ante
ordin aire
distin gu
z y
co p
vers ant
min er
éche lle
z er
préf et
éta pes
l’ eau
s' était
pétro le
l'é tranger
p t
ense mbles
vin cent
appara ître
capa bles
prob able
b alle
compar aison
jac ob
ap porte
ré elle
orient ales
car t
lè ne
reconna ît
b rest
cu ivre
al entour
confi ance
gla ce
pie ds
jui ve
c d
l'é crivain
bi les
tour nant
ili en
val lées
enga gé
polon ais
mes sage
con tres
cuis ine
répon d
jean pierre
b loc
diz aine
passa gers
néces site
fa cteur
claire ment
autonom e
l' objectif
a ment
ac cent
supplément aires
fru it
alleman des
sy rie
ke y
élec teurs
six ième
du quel
â gé
commun istes
sco laire
re construction
ith ique
la ient
con sacre
tri om
logicie ls
coali tion
me xi
d' italie
l' établissement
stu dios
isse ur
s mith
l'éle c
tre ize
po ème
e k
trav ailleurs
popu larité
jean baptiste
int end
f ri
chi ca
chica go
associ és
po èmes
ss ent
bas il
re production
seineet marne
ag nos
ef forts
wo od
mar x
ar rondissement
su ici
réd action
tiv ités
collec tivités
bat tu
ca la
dis positions
pla ton
dé mar
ly n
répon dre
différ en
confir me
program mation
soi x
tra m
colon isation
soli de
indépend ante
appelé es
produ c
p p
l' hôpital
le ver
inter vient
effica cité
performan ces
lea der
ê t
vent s
plu ie
ma m
remp ort
z ur
voi le
genti ne
attribu é
ar thur
finance ment
exploit ations
nom més
évé nement
re mise
démocra te
pollu tion
ba teau
fondé ment
pro fondément
pla ge
par tout
acces sible
hon gro
dom mages
décen nie
vol can
oir s
présent ant
étoi le
net tement
a ca
pay er
l' ère
continu er
de ments
essa i
rempla cement
us ées
l’ année
po lé
hit ler
assur ée
prin cesse
en quête
l'in formation
hydro graphie
réalis és
an tin
lo cu
dé esse
champ ions
bo î
ve ment
jou ent
vi rus
pi é
ba teaux
pau vres
gra ves
si mul
long s
l' hypothèse
va gue
continent al
b rie
l ité
re d
è vre
considérable ment
produ isent
l'ac cord
c rue
impa ct
m pe
partici pent
b ons
riches se
hi ér
administra tifs
a gir
im poser
produ cteurs
ad o
é preuves
gal lor
gallor om
lo re
l'in iti
voit ures
lé o
ab ou
w is
capa cités
ni ce
trou pe
d' ur
isla m
découv rir
ai der
fu ture
l’é cole
hist oires
jo sé
ol ithique
l' anglais
me l
for es
d' habitants
ta x
réun it
ancienne ment
sché ma
va ise
hon or
gala x
l'am our
inaug uré
fig ur
di agnos
ign ent
t le
topony me
ro ches
main tien
surveil lance
récent e
vari antes
rivi ères
bu lle
phra se
cinqu ante
comm é
rac ines
inspi ration
modifi cations
b au
interpr ète
vou lu
étrang ère
d' exploitation
vé ni
médec ins
cy c
intitu lée
lég ation
an der
chir ur
im m
ro l
archite ctur
mat ur
effec tif
décis ions
ac compagne
fer met
bap tis
contribu e
w el
l’ ab
suc re
aban donné
rur al
pert urb
sécher esse
impor te
sig nature
max imale
ca mé
d' y
ie ux
ar che
gros ses
re ct
min or
b ag
lan cée
coup s
pas de
guer ite
vie il
pasde calais
mar guerite
fer a
contempor ains
se lle
enti ers
gar es
déplace ment
prox ima
vais seau
l' opéra
bi ologique
satel lites
oli vier
ve au
ch œur
sa cri
réser ves
mix te
co or
l'in vent
enne mis
ég al
diffici les
i enne
f ères
simul tan
bre vet
observ ations
su pr
a éro
supr ême
co di
ren contres
re trouvent
f aux
cli ent
r hé
pr être
éch ap
apprentis sage
fidè les
l'actu elle
j un
flan dre
ré serv
b ol
réparti s
th ier
l' honneur
avi on
l'ag ence
a xe
vie ille
déte c
vois ine
lis sement
limit er
divis ée
ex prime
re découpage
néces sit
v au
m c
om é
eng end
on de
pont s
mar oc
z ième
p c
illu stre
quali fie
rou sse
performan ce
dis ques
au ss
vio lon
ca en
sou dre
l' ap
as es
at tent
inst ar
i ens
mention né
ar rondis
d' hiver
as te
l'a xe
ég ale
destin és
ex cel
col line
istoc ra
n' ayant
volu mes
indi en
consi dèrent
se ctes
vo s
ti lle
ca valerie
d' utiliser
gale rie
suscepti bles
lé n
l' humanité
ver be
empê cher
bapti sé
dis cus
quit aine
quis ition
l'expéri ence
d' infanterie
couv rant
dé cri
vis ibles
vian de
mo bile
tu er
re z
contra int
sa v
pla ines
jus que
mag as
syn thé
dis cu
dis positif
l' essentiel
mé taux
c isme
po ir
con fédération
prus se
réfle xion
mau vaise
b éta
per dre
is ol
ar s
quar ante
bo x
qu ator
bona parte
ton e
déf aut
l' ouvrage
tri bus
s un
val ence
basil ique
tour istique
inond ations
territori ales
he b
imp lique
ton nes
préf ér
inté rieure
écar ts
cet tes
d' action
évi dence
eng ag
re urs
ther mique
sin gle
établis sent
dipl ôme
ta ve
ven du
colle ctions
dane mark
j.c .
d' âge
fa sc
identi fi
da ture
boule vard
dé cident
ci a
com bus
vra ise
le e
vraise mb
tin tin
va peur
é mis
puis qu'il
f ol
ab rit
maîtr ise
règ lement
colon nes
v int
cler gé
se c
individu elles
cit y
commer ces
dé pit
si cile
dé passe
d' amérique
déb ats
bri ga
occu pée
phar ma
alis ées
statis tiques
sep tième
suéd ois
ju gement
habitu ellement
ense ign
re joi
pau té
mém oires
tour né
re marque
catas trophe
co ol
sis mi
sismi cité
l' espèce
universe lle
compéti tions
renfor cer
cou tu
consta tés
or es
j am
quasi ment
hé li
dev aient
wor ld
p ente
test ament
lo go
deman der
pour suivre
co hér
ré élu
c â
a tif
industrie ls
ant enne
gab rie
hui le
mar ques
royau mes
de z
l' hiver
si le
d' histoire
gé n
ge l
per s
publi és
l' emploi
l’ est
in cen
commerci aux
par oles
assassin at
prê tres
hau sse
arché ologiques
cri me
gra ines
œu fs
cour ir
sou li
forter esse
re tard
s la
ma de
financi ères
h és
ti rer
is és
subs titu
d' hommes
é pa
l'ég ypte
camp s
il lon
so ft
qu’ un
ève ment
colon i
déri vé
gn ant
ré ception
trans formé
op tique
évê ques
dé nommé
sy no
considé rer
ro t
peint ures
por tées
he ct
hect ares
d' ad
spor tive
enregis tré
la bo
spor tif
procé dure
ch oc
rédu ite
bran ches
représent ée
rom pu
effectu é
hydro gène
colon ne
ci v
la cs
civ ils
écri vain
influen cé
comp tes
méri dion
chois ir
us ines
instru ction
so ins
guit are
â gée
pavil lon
cent aine
olo gues
fil iale
cro ise
pyrami des
terres tres
produ ite
ver sement
bour bon
psych ologie
ai x
char gée
sur nommé
proté ines
l' automne
bé co
qué béco
mad rid
ba tail
cor de
man u
saint pierre
instal lée
lu mine
navi gation
récomp en
in hu
financi er
matéri au
ser vent
ving taine
inter vention
issu es
byz antin
pré dé
prédé ces
démon str
for cé
mon té
té rité
is ab
si mu
exer ce
plate forme
ma it
cher cher
on des
molé cules
l'ac teur
pro long
l'ex écu
d' «
meu bles
trés or
ab at
hé sion
tent atives
gé ré
éco s
qu alités
témoi gne
car d
per pé
pres s
succes sivement
pr u
cham pa
médié vale
gi les
cré és
exis tait
contempor ain
financi ers
fort une
pla que
os car
reconna ître
y é
équival ent
domin ique
car th
vis age
inclu t
mor ceaux
ta illes
l'ar gent
z aine
x iv
ph ases
influ ences
né ra
industri es
s tan
li aisons
modi fication
pren ait
occu pa
g and
c’est àdire
oxy gène
dé cro
lève ment
sin gu
contra intes
an tiques
p ants
goth ique
ma dame
retrouv é
gu ère
relie fs
préser ver
k ur
enti n
g ris
l' om
l'inté rêt
public ations
propre ment
arrondis sements
par cs
mp er
ajou ter
prom is
consacré e
va ins
appar ence
don nés
diffus é
é cou
cor se
rayon nement
littéra ires
mari times
y de
ap proxima
di vise
e z
spéci alistes
facul té
rie d
f ried
f lè
dé mi
parisi enne
l' ob
ten nis
an ni
urba ins
sur rection
champ ign
colon s
ta ient
h oc
coû te
bla ck
her bac
adop te
impéri al
os ité
mécan isme
habit ant
ar bre
voy ages
habit ats
r s
cré dit
ré actions
l'é pis
ca in
, %
dv d
d' été
s ses
cent e
bil l
l'emp lacement
pla cée
dé nomination
pratique ment
mé nages
électri cité
s œurs
chau d
tur quie
g end
patri o
fer mé
par k
pré vue
sau vage
circons criptions
dé pen
fo ssi
l' usine
priv és
vé gé
inclu ant
symbo les
ve urs
n g
liné aire
cellu le
alentour s
ra in
met al
littéra lement
rest é
contribu é
com pi
pi ers
é lis
priv ées
pé d
moder n
son de
christo phe
tis sement
l'ar tiste
ver te
ég alité
marchand s
sa tions
l'archi pel
a me
in dis
fé li
g m
champa gne
graph ies
constitu ant
pos térité
historique ment
exprim és
térie ures
men ées
trac é
ren force
ver tu
spéci ale
v ad
médi ca
ex ige
adop tion
cu laires
cour amment
vir tu
presti gie
k yo
éner gé
mani pu
fédé rale
ou t
bi ble
francis co
supé rieures
gi ens
pa in
lou ise
vég éta
actu elles
actu els
salari és
cen sion
l' attaque
quoti dienne
ch ou
bon nes
rest es
fidè le
symp hon
radi cal
sé di
dis es
dé pression
fol k
r d
al té
décis i
l'at lantique
vo ca
p lon
ri enne
réalis ées
citoy en
mor te
adul tes
ac quiert
tu és
occident al
con centre
conclu t
sta ble
ta xe
g is
av al
culture ls
ta in
mé nage
mar y
protest ants
con version
autor isation
ai les
é non
x v
si eur
jet te
hu go
pa t
nég li
gé rie
aî né
diction naire
afflu ent
fa cile
con jo
ul sion
ch rom
fa une
ment ation
m ers
natur a
fe ux
accor de
vois ines
nor vè
norvè ge
évent uellement
crist al
ch ili
mam mi
gouver nements
l' ont
ab e
ré ellement
gau le
mé tier
cli p
b rou
alex and
d'ar mes
gé rer
telli gence
rés is
fréqu ente
f ins
trait er
partici pa
vraisemb lable
com préhen
instal lés
l'au triche
commen cer
con su
e y
reli gi
li ve
ci ble
can nes
em prison
win do
la ges
travail lent
val ent
arri vent
j im
canton al
secon des
pla t
libé ré
pul sion
hame aux
pi b
e p
gne ment
cha ge
lan te
gra mme
b s
v ête
vête ments
ré pression
i d
emp or
in qui
si er
domin ante
mag is
sup porter
arri vé
vois in
tal ent
mobil ier
austr ali
fer din
ferdin and
péri o
in vesti
p lou
sy mé
pro positions
lieu dit
origin aires
distri cts
nota ble
lè vent
humi des
ai gu
tradition nelles
fermet ure
flor istique
froi de
pronon cé
to s
vi i
l' amérique
édifi ces
mus ées
intéres s
saint jean
candi dature
ti fication
do té
auxque ls
suscepti ble
hé ber
rou es
op ti
progres sion
marchan dises
la ur
cré ées
voi ci
bar rage
ray ons
absolu e
mater nelle
re mis
dou ce
té mo
référ endu
légi ti
ver sé
prof ite
v alle
k y
nuclé aires
visite urs
héri tier
universe l
amélior ation
ar r
ac qu
ang ers
til lon
ve l
mention ne
men su
magné tique
cy lin
g han
g it
dé cer
rest ant
souverain eté
saint germain
é mission
ro land
occu pant
s'op pose
sou ligne
in o
ca ires
e li
ca fé
re y
op posé
fo yer
sé pare
ori a
pi ra
cla ssés
quator ze
dis posent
appar u
tu be
annu el
dé marche
descend ants
obser ve
c èdent
vou lait
br il
ab or
diver si
n ou
sensible ment
s' éle
accu mu
sa me
térie urs
dom ad
heb domad
se mi
l'initi ative
résul te
provo quer
modes te
t v
eu gène
con tiennent
l' autoroute
bo y
ra chet
ph i
initi ale
est hé
équival ente
dis ant
b ère
on yme
aban donne
at ures
esti mé
d' octobre
g s
intég rée
g illes
l'ar rière
d' urbanisme
récent es
s ine
qu’ une
journ alistes
l' instar
ma çon
j er
sexu elle
dédi ée
fa unis
a qua
épou x
faunis tique
can ons
max im
pr est
cour ses
parois si
eff ici
particu larité
chan gé
adjo int
cler mont
conf ie
d’ état
dis ney
ag res
cré ant
d' es
aliment aires
fig urent
re uses
vit ation
amé r
versa ires
é met
l’ empire
m ous
d' œuvre
li ère
mer cure
c ris
atta quer
formé ment
mé tiers
se ize
so lo
simi laires
ch en
col omb
milit ants
re cettes
possé dait
initi al
d’ eau
p tion
som bre
réfugi és
obser va
ven dus
fie f
cour be
col om
cor des
dépen ses
l’ université
do ssi
ec clé
ecclé sias
nota tion
é v
atte inte
ri ver
ch ang
autre ment
plan i
mo d
sup pression
gen e
présent ée
occu per
terr or
éle vés
déb ou
s' engage
bles sé
mil lé
dirige ant
concep ts
tempor aire
mo tiv
l'al titude
dé sert
ti es
v us
que ue
in er
traver sé
dé légation
l' emb
religi ons
ac célé
reti rer
continu ité
vrai ment
u d
tend ances
lieux dits
supplément aire
ale r
cli ents
d’ abord
soci alistes
prom et
du o
bab y
gar onne
la bles
windo ws
am bassade
continu ent
dat es
l'invent aire
pas sée
ate liers
spor tifs
prus si
abord s
endro its
science fiction
u sages
pas cal
d'a vi
hy m
pré parer
o se
contrôle r
o ble
gren oble
explo sion
remarqu ables
combat tre
difi ce
l'at mosphère
our s
br ut
pré nom
d'in formation
toi les
hé ré
rou tier
f an
l' alliance
proven ance
per se
sau ve
ju an
cou sin
écri vains
bar bar
char le
car re
fu ite
ail les
augment é
n t
em manuel
l’ ordre
mascul in
mil i
i de
ac cro
jon ction
pour ra
éten due
l ord
temp ête
nature llement
on cle
hol ly
attribu e
jui f
ré cep
ca dres
occident aux
qu ette
fin ales
pro poser
g las
l’ autre
tri o
ren nes
spati al
min ér
indépend ants
ar rêt
p seu
statu es
d'é viter
cé les
occu pent
détru ite
perç u
manifest ation
a gé
pé né
organis ées
por tation
l' urss
modifi é
intég rer
l' is
vari ante
dom ine
ca vali
commé mor
bas que
coû ts
la in
ï n
lég ère
ap plique
ma tions
ter ri
emp loie
car to
modifi er
gr ève
t ché
i ers
lo ts
céré ales
sort ant
championnat s
précédent s
min u
é dité
enva h
pilo tes
thier ry
ex posé
seu il
l'actu el
cap ture
exécu tion
ex cep
con cili
con tes
ex posée
sen si
trans forme
ré soudre
fou le
jusqu' aux
qui mper
austr alie
ef fort
ma gn
vé lo
inter ro
tradition nels
pony me
ira k
m è
qu ation
ab ré
dédi é
inter nes
ad mis
am ont
pou ssée
mammi fères
temp les
facilit er
ne veu
la té
è ves
exac tement
é tienne
vi ii
la ine
tâ che
mas sacre
val en
in do
a pol
franco phones
dic ta
sur prise
munici paux
constru ites
suff i
cre us
ist ant
vi et
mo tifs
document aire
s p
gu ér
mi gra
car l
libér al
inscrit s
sanctu aire
ar gile
flo re
pit er
ju piter
hui tième
algé rie
vir gin
mou lins
pré di
qu ad
parfaite ment
har monie
ad versaires
direc tive
télévis ée
montr ant
l'ex pédition
eu ve
déta ils
référendu m
au di
mar ty
p ili
l'in vasion
proto cole
bar re
le cteur
conf lu
cu ba
favor ables
ri o
cr è
k en
artis te
to po
d' appel
l’ œuvre
nota bles
se ctions
char ente
comman dé
s ho
or donne
prom ouv
entraî nement
envis age
ga me
l'é toile
at hé
métra ge
pas sages
b ant
expli cation
se xe
bles sés
net te
provin ci
ap porter
té ries
arti llerie
pein tres
précé demment
john son
cons tant
re met
inté gr
f res
ser ge
marqu er
inst ance
confi g
sn cf
accep ter
fonda teurs
cou vent
émi le
al fred
cour ante
ar bus
parois ses
d' im
co effici
a xes
pon tifi
su da
angu laire
gé or
con go
mi ers
f ine
ass aut
soix ante
ju gé
commun s
titu des
mathé matique
affec té
effec tifs
n' étant
ren seigne
pois son
d'é qui
voy ant
i tions
str alie
l’ île
p istes
large ur
gar n
pla cer
pu its
remarqu er
t ari
per sé
théori que
gal les
ç ait
l' appellation
don ald
ag ré
int ensité
ron de
ad oles
souver ains
conserva teur
el li
tun nel
l’ origine
temp é
min ant
lou p
modu le
indi ca
po it
fu ir
rou manie
gé ologique
ve uve
idé al
cap tur
no bel
é van
organ es
deman dé
f lui
di vor
bel ges
ar m
tro it
fichi ers
implant ation
lois irs
dou x
do te
ir landais
obser ver
éle vage
air lines
rempla cée
regis tre
nelle ment
cour ts
v aux
agri cul
lu tter
a k
ser ment
abouti t
évolu er
catalo gue
ant aine
rencontre r
pon ctu
pa ie
statis tique
sa mu
man ga
déri vés
ouv rir
aéri en
rempor ter
co o
photo graphie
can aux
pa tient
thé â
publi er
isab elle
prolon gement
op pose
publi cité
av re
j ord
carre four
l'épis ode
prê t
dé crire
tr ê
pré ala
è nement
dra matique
cor é
gé ométrie
re lais
ber tr
bertr and
thé ologie
chan tier
doc tor
péd ago
enti el
meille ures
dévelop pent
l' application
commen ça
approuv é
troph ée
ad versaire
kar l
cri mine
pré vention
mala de
specta teurs
z éro
co des
b ale
ru ines
mail lot
l' islam
mo tion
ir ent
couver te
pro spé
ol f
sû r
l' alimentation
ni ère
favor iser
o ît
au ver
confér ences
ben oît
chau ssée
men ant
tem po
cor rec
ner ie
don s
tent ent
préf ère
pauvre té
é p
y u
avent ure
propa gan
cé ra
beau té
considé rées
sug gère
au dio
fran che
rit es
per mit
con sole
ac trice
gi de
lég is
élector ale
bo tan
char gés
cham bres
com portant
précédent es
ad am
d' ordre
posi tifs
poi tiers
mb ert
il lé
char s
spéci al
tin t
col lines
in formation
li ège
é du
inclu s
sé quence
pla ques
mathé mati
géné rique
hongro is
syl la
quit té
s aut
con fusion
vis it
s' impose
cor ruption
réta bli
ton y
cer veau
desti nées
bas ses
sta bilité
ci dessus
stock age
m ite
ab on
suff it
chante use
val or
k ans
répé ti
is it
abond ante
b ad
ri ves
qu ait
gi enne
sub st
tis tes
subst ance
l' exemple
e ing
cri mes
har ry
n il
bo eing
dra gon
permet tait
la y
on ique
to it
met z
l' avant
famil iale
fonction naires
d' emploi
h ad
isto te
grand père
im s
an ges
se y
re ims
en cy
obli gation
pronon ce
artis an
k an
ate lier
l’ ouest
més o
car dia
pas teur
nécessaire ment
co sse
ass iste
per ception
l'ac te
l'ac trice
identi fier
dévelop pés
situ ations
mâ le
rê ve
gabrie l
phar a
utilis ateurs
d ôme
signi fication
re p
sculp ture
chi en
atom ique
cana dien
hou se
cul tes
y ve
trans former
yve lines
comman des
dép ôt
petit fils
chev aliers
imm ense
uré at
or ange
spor tives
personne ls
vi ers
garn ison
mor ceau
l' appareil
mi er
re ich
di gn
s' ils
comp en
p lé
mont s
sy non
stri c
de grés
arr ête
démonstr ation
enregis tr
entour é
h at
mont pel
chasse urs
sa bles
lé matique
sé né
dev oir
s'ag issait
ch ê
res pi
mâ les
mon ar
ne f
effec tivement
nap les
i p
fis caux
franch ise
invent aire
vi ère
circons tances
sti mu
ist ent
cur ie
lo calement
bour se
eri can
arti fi
anis te
imp ôts
l' être
in cendie
g me
ti ré
au triche
promouv oir
inté gra
sul tan
l' augmentation
an na
emp êche
con fes
or léans
spéci alisée
exécu tif
man oir
cu mu
d' air
élec trons
meur tre
pes te
ral enti
mort alité
alli é
j '
dé ser
l'as pect
humi de
ce _
codi ce_
sacri fi
suffi xe
po p
psy chi
sexu alité
retour ner
heure ux
triom phe
s' établissent
erre urs
ré hab
musi cien
a cides
baptis ée
om es
flor ence
d oi
cinémato graphique
com prise
la téra
h ay
com prennent
expli cite
mécan ismes
domes tiques
propagan de
détru ire
bac téries
reti re
zé lande
défini tive
tram way
car bur
mo tif
ordin ateurs
gé omé
ent endre
al gorith
lè te
nan cy
ath ènes
perman ente
pal é
s' instal
re tenu
di vine
do tée
pa ter
no ble
scand in
compos ants
n œu
rend ant
ti ce
con que
ter rand
mit terrand
par viennent
ven ait
con n
sa m
souterra ines
massi ve
entre prend
pri maires
ch ers
condu ire
appli quer
révolution naires
moy ennes
g est
gran di
grande ur
appar ten
officie lles
conna issent
vi êt
bu reaux
rester a
ér on
con sac
fichi er
ce voir
indis pen
b ine
d'au triche
légi time
propos ent
nav arre
l'éle vage
cent rales
bar ce
barce lone
manu fa
specta cles
it ôt
auss itôt
lin i
combin aison
deven us
suffis ante
vou loir
du t
princi pauté
arrê tés
d' enseignement
sau ver
g v
anté rieure
ter ies
c ti
é dite
bat tre
reç oivent
philosoph ique
méditerrané en
pati ents
ti sation
t chè
con formément
généra tions
appar ent
l’ homme
aven ue
dé gâ
ach ève
dégâ ts
hérit age
enti té
gran dis
to x
sco laires
bat terie
blo cs
to kyo
cons tel
pour suite
déc rite
éle vées
l'inter médiaire
urbanis ation
suici de
es sor
re lles
d ge
v aud
compréhen sion
dis paraît
réser voir
d' allemagne
gas ton
li gnée
in des
intercommun alité
débar quement
h ans
k istan
ni ens
nav al
ce in
montpel lier
cein ture
ar c
généra les
h us
hin dou
in cident
lar ges
cur é
adul te
explor ation
han di
l'ar che
puiss ante
respec ter
ci ennes
micro soft
sommet s
glo bal
ex térieure
dra me
sant a
n' étaient
sco tt
s' être
ser ie
ottom an
ra ces
atti re
reç ut
don nance
se g
rom aines
mont ent
écos sais
bibliothè ques
hô te
plur iel
trans it
i ère
─ &gt
cou le
conserv atoire
égyp tien
rou en
ama teur
re monter
ex i
nor m
l’ une
ct oire
travail lé
do se
déri ve
sta bil
con vient
cal caire
proté gé
d'ac cès
refus é
g ê
musi ques
na sa
diagnos tic
sa laire
hypo thèses
muni ch
dange reux
que lles
mer gence
parten ariat
me urs
ag ence
gra v
fossi les
étudi é
mb er
obli ge
no va
l'avi on
fémin ine
l'ar rêt
produ isant
techno logiques
herbac ée
inter venir
cap itu
ins criptions
on y
pont an
thie u
s pontan
médi cale
archite cte
ang les
rela tif
g loire
pr ête
l' installation
le vée
du ches
ma le
da y
hebdomad aire
trent aine
la us
sol dat
territori al
é th
nar ra
do ine
ratta che
men és
é lar
test s
from age
s' av
ne au
l'é difice
organis és
compagn ons
augus tin
sau vages
off rir
analy ses
vi gno
b its
g ly
entraî ner
dor é
fais aient
ré unis
lour des
préala ble
ger ie
augment ent
pe aux
ouver ts
ti mbres
l'inter vention
l’ environnement
sa intes
rou x
beaux arts
ton es
ent rées
ma trice
t f
polé mique
tis su
a min
g nées
org ane
l'ex trémité
esti mée
assassin é
aban donner
exter ne
l'ex trême
por tait
scand ale
remp li
neu tr
fer rand
circu laire
occit an
pseu don
manuscrit s
ène ments
é cra
ba illi
d' espèces
crois ade
pho re
ïs me
avo cat
ache vé
assur é
d as
auto ch
ingénie ur
t au
chan al
ib n
psy chanal
ent ame
vie w
envoy er
témoig nages
re pas
jou ant
techno logique
l'éche c
d' animation
rapi des
univers itaires
lan des
camp us
bas tien
avant ages
nor vé
ama teurs
l ur
th or
fix é
es co
dan ois
tra jet
cel tique
consci ent
mon go
déf un
gon f
récupé rer
combat tants
artis tiques
bu laire
mour ir
co stu
télé phon
d'a mi
ed ward
sû re
sé pul
l' heure
syno ps
synops is
prison nier
ré par
h ai
bou che
ca se
tour istes
commis saire
québéco is
dé faites
at tention
saint martin
t ort
apparti ennent
ex positions
jur y
g ères
mine urs
accu sé
utilis ateur
jean paul
diff use
fon te
feme lle
méda illes
discipl ines
vraisemblable ment
possi bilités
cor ri
pos ants
spéci aliste
ver ses
s' inscrit
n ort
ré bel
dénon ce
re mettre
f rica
significa tive
ba vière
d' entrée
mé lo
répert oire
re pé
consta te
tro duction
bal lon
frag ments
hé ra
lour ds
indi enne
stal ine
quel à
am er
adop tée
cl és
por teur
adop ter
né rable
mesure r
quanti tés
in sectes
ri z
bas sins
z ar
éch ou
samu el
briga de
vais seaux
vi chy
franco phone
enti tés
récomp ense
ali ments
aff e
spéci fi
a ture
s cor
officie ls
dio x
ajou tent
ré solu
pla y
rencontr ent
glob alement
hydro graphique
cro issante
d t
renouve llement
vi ti
dé vo
région aux
res tri
explo ité
lors qu'elle
symp t
n °
ob sta
pla cés
obser vé
fi rent
multipli cation
p ins
domin ant
tom beau
prie uré
titu laire
i bilité
adap tée
bri que
possé dant
fre e
n' importe
typi que
témoig nage
jec tif
ci ère
simultan ément
i cs
l'é cart
clo s
w ag
re pous
réno vation
for um
jack son
li ban
in corpor
isla mique
y en
des servi
gar çon
séna teur
médi a
habit ations
stric tement
ni enne
ar istocra
pa th
brun o
gre en
config uration
bru it
clin ique
labor ation
ca tif
contribu tion
re prenant
effondre ment
é par
lo ve
con quis
étudi ant
int ense
cul minant
sa ou
hym ne
mon étaire
trans mis
dispu te
anton io
ca vités
l’ organisation
/ /
l'op inion
habit ation
in fe
témoi gnent
av es
l'é preuve
p un
réser vé
dialo gue
agricul teurs
dé troit
ra don
fondament ale
céré mon
pré cur
syndi cats
qu' est
juri diction
rési de
magis tr
d' as
jon es
dimin ue
tri angle
nu tri
ab sence
col ère
pé rou
considé rant
mas ter
blan ches
vas tes
dis tances
publi ées
bouddh isme
scén ariste
cr oire
ca hi
sort es
me aux
tri ques
a cide
qu ai
enter ré
commun ément
zo te
hol lande
guit ariste
ti vis
ro sion
ali ce
jusqu’ en
constitution nel
re prennent
ern est
colon iale
nom mer
fame ux
wel l
no t
s'inst aller
d'at h
d' occupation
an y
fer mes
nouvelle zélande
répert ori
supé rieurs
appar tements
vi ve
récur rent
ré vision
volon taires
cré ateur
ingénie urs
inst alle
suis ses
châ teaux
écrit es
météor ologiques
è ges
u elles
énergé tique
vra ie
d' est
til ité
tom bes
des ign
er cice
lon don
her gé
duches se
sol li
démocra tes
fin lande
phé ni
l ys
pré co
quali fication
con ju
gy m
ch ester
fortifi cations
châ te
chau ffe
réus site
tent é
is ations
è bre
pr ouv
in vité
confir mé
mo tor
puiss ants
il lég
jus quelà
re command
demi finale
venu es
jean marie
par o
har mon
mari é
municipal ités
re vê
soi rée
subs tances
king s
sa inté
certaine ment
neu tre
mo z
convain cre
ch ure
presti ge
mour ut
il ée
inaug urée
amou reux
tom ber
l' identité
finan cer
l'al phabet
transfé ré
w alter
cru es
s' in
légis lation
prospé rité
au té
mes ur
l' us
désign ant
s phère
légen des
maje ures
afflu ents
dép loy
inst aller
wal lon
im prim
chance lier
fra ction
b ite
gar çons
ad mi
anglo sax
so cie
sa ient
réparti es
bu le
bos ton
ni ck
ve cteur
élector al
sty les
vac ances
com positions
produ ites
wo o
hiér archie
philosoph es
fl ori
déplace ments
perturb ations
nation alité
intellectu els
traite ments
u mp
parten aire
dé cédé
d' administration
eng ager
attest ée
ache vée
représent és
adap ter
ver ser
clo cher
lo ise
fa ction
vi gne
sex uel
il ly
ins cription
limitro phes
bord s
tra je
min orité
spéci alement
cer titude
progres sive
indi rec
we ek
ra il
gos la
you gosla
vo ter
hu gues
défi cit
pen sion
gag né
nav ale
ctor at
chet te
dom ini
numé riques
parten aires
mon sieur
du cs
pro cu
anni versaire
as t
éch oue
é vacu
feme lles
dis posant
décor ation
ca mer
liv ré
d ures
z in
d' am
régu lier
descend ant
n intend
nintend o
same di
assi mil
termin é
norma lement
a que
dis paraître
rec en
tr ation
x iii
ble ue
châ tel
pi que
véri fier
l ouvre
con vo
gar dien
bri an
be ck
dauph in
pré histoire
signi fier
marqu ant
alexand rie
dou blé
end om
pure ment
habitu de
des cente
t êtes
év ènements
vari ation
l'on u
conna it
musi c
la issent
in a
ter ris
qu antique
l' ur
fabri que
ré els
déci da
rencontr é
associ ées
limitro phe
ja min
urb aines
ben jamin
a dé
consom ma
hoc key
réta b
affi che
quali fier
dé li
ca ins
d’ origine
en cla
flè che
dou ces
cen sure
nu lle
saint denis
breton ne
dépla cer
li mo
res semb
métropolit aine
pèler inage
flu vi
bri ques
mi gr
navi ga
gra vité
s and
com prenait
exprim er
co ck
bourgeois ie
communau taire
sou p
fé od
pro fond
affir mer
spéci alisés
na mi
al ou
sé min
inspi rée
méso pota
phéri ques
gé ant
ai me
constan tin
n ale
mine ure
ér ôme
diri ger
sculp tures
des sert
j érôme
res titu
anc êtres
qu' avec
témo in
dé tri
s'intéres se
qu arts
qu’ on
succes sives
ch on
mu tu
glob ale
dé nommée
protest ante
évi dent
graph es
ave u
in tra
con vi
cana diens
prob abilité
arri ver
m r
ens ée
équ ilibre
l'a cide
partici pants
emp lacement
dis solution
lu x
éta ges
plan ètes
mo selle
investis sements
cla r
at mos
lour de
commer ç
comman dée
réguli ers
posses sions
compos ent
o ï
ex trait
envoy és
lom b
par lé
libér aux
inter communale
cro issant
prom ul
pré da
is ées
diplom atique
no tori
l' angle
notori été
f ans
né olithique
botan ique
inté gration
démission ne
hau s
sév ère
k et
franç oise
bas ket
re couvre
ent hou
enthou sias
pro viennent
plais ir
attribu ée
té moins
l'es cla
appro vision
semb lable
rédi ge
cie ux
jo e
assist ance
conta cts
révé lé
at traction
continent ale
dérou lent
dat ent
du ire
rest ée
atom es
mar ge
par cour
ste ph
res semble
l'é quation
divin ité
gui de
dé tient
me mb
mer ie
indi quent
s to
ron d
d ense
f fa
lit ur
n oires
me use
che veux
ct orie
sol de
ra ch
iv oire
de ttes
hab ité
charle magne
tr ale
p anneaux
diminu er
tir s
is a
chan tiers
ach ète
bi ologie
r ine
por tail
vo la
bar o
cour age
k ab
pa ire
d'a sie
b ille
l’ équipe
bla son
pla teaux
sig le
vers ée
anne x
d'é lé
législa ture
rang s
ch ants
in con
lo tte
dé sin
accep té
m ens
cade t
s' inspire
l'ab an
a tie
entre temps
comment aires
par fait
min im
batail lon
me d
l'aven ir
ori al
l' expansion
ins tant
ri ens
son ore
la val
l'at tention
outre mer
l'équi page
travail lant
pré ten
éten du
contra inte
p éta
heure usement
proté gée
le ts
som mes
ste ve
th es
roy ales
divin ités
è que
sin on
ra ini
dis posait
pré con
dev ise
parlement aires
b c
l' aménagement
ul térieure
collec tive
s' appelle
l’ ancien
s tres
william s
qu’ en
l'a sie
ap propri
initi ative
ca ine
élis abeth
équi pé
sépar és
del ta
distin ctes
ra mes
et y
m ali
mar bre
le ine
cro it
â ne
œu f
made leine
ré mun
délégu é
nation alistes
de ri
élec trom
fin istère
funéra ire
arrê ter
g les
nour ris
écla i
ine ment
con te
vict oria
calcu ls
g age
s iste
ti fié
ex press
anti sé
ag né
l'é lément
orthodo xe
publi cit
sup pose
médié val
l’ empereur
auxque lles
ver n
indi gènes
organ ique
vos ges
pré pare
veu lent
l'élec tri
gonf lement
net s
déc ors
électron iques
gen èse
arché ologique
carol ine
d' onde
dé passer
exter nes
ex per
a x
rapproche ment
bi r
ani me
boî te
ratta ché
corpor ation
valen ciennes
l' office
que ls
ren ault
re pos
détri ment
op en
comp any
l'exécu tion
fonction ne
pa cte
r ants
recue illi
condam nation
s che
l' animal
cor po
ris on
ar chi
tis sus
psychi a
atte ignent
tex as
has ard
ban ques
bi ère
l'ég ard
sur vie
a z
uni forme
particuli ères
vou lant
médi cal
éron au
favor ise
eng lo
ne z
idé ologie
sen sibles
gu il
persé cu
s'appu ie
cali er
fer mée
effectu ée
intellectu elle
gro sse
dipl ô
voca bulaire
imagin aire
génie ur
ger mani
co pie
catal an
sau vet
mo re
ob tenue
parti elle
prom en
r entre
carol in
artis ans
co lu
termin er
spéci ales
composé es
argile ux
g ang
s'éle vait
fra ppe
nation aliste
propos ée
autor ise
trouv ant
réhab ilit
bor dure
entraî né
récol te
légu mes
sign er
ca isse
par as
g ni
artificie lle
adap tations
identi fié
b ré
pronon ciation
appar tement
ve iller
vin rent
es pr
trib une
comtes se
espr its
ju da
orthodo xes
ite d
l' avantage
accompagn ée
d' ap
trans formée
mécan iques
libé rer
ba tailles
gu en
as socie
ré partie
fut urs
républica ine
mys térie
d'in dépendance
néga tif
l’ objet
g lu
l'ai le
stre et
pseudon yme
s cho
com promis
répu té
bénéfi cier
gra s
v été
inter rompu
cin quant
l'in troduction
alé a
cardia que
jan e
ro bin
sour is
refu ge
fla man
oli tion
no tions
soli dar
memb ran
éco sse
pi gn
hel m
exist ant
constel lation
ci enne
cra te
compagn on
observ atoire
so in
pales ti
identi fication
qu êtes
ren dez
rendez vous
al l
tunis ie
s pin
effectu ées
ordin ation
gé ologiques
pou dre
ex pose
pla ges
spéci alisé
clé ment
morph ologie
l' âme
plu ies
ent rent
bas ti
rédi gé
subs iste
v ales
l' entre
pon dé
jean claude
l'ar me
désig nation
r ho
colle ge
nomin ations
labo re
av ie
cré ent
l' oc
lumi ères
xi ons
sculp teur
ta pis
he im
de meur
a éroport
comp tent
fon der
or chestre
ist ance
né o
succes sifs
sou tenue
elles mêmes
étrang er
dun ker
n iste
ti ge
d'é valu
sy mpa
sympt ômes
dé pour
conserva teurs
ref roi
jusqu' alors
con son
ti bles
eur ent
perpé tu
re pli
spec tre
phon se
c m
tro ie
rébel lion
milli ard
amé nage
croy ances
or y
por teurs
anne xion
dix huit
é tang
l' orientation
secre ts
l'é diteur
cana dienne
distin ctions
appe ler
g ain
c oi
s ard
vari ent
l'é pou
suda frica
quet s
d' assurer
cour rier
re cul
coor données
bombar dements
l'a mp
l'ar bre
fo y
bel l
législa tif
diale cte
spéci alisées
anti ci
par lent
ba ins
ré tro
pol d
qu’ à
pro ch
ses sion
suc cé
li cen
blu es
ten eur
égyp tiens
in va
l'un esco
a trice
op posants
l'imp ulsion
contro verse
systématique ment
main tient
enti elle
entour ée
résu mé
co pe
gra mmes
l'ar c
vendre di
l' ennemi
mor al
découver ts
parta gent
jus tement
con for
op tion
orb it
cer tifi
k el
pens ent
compar able
n s
tend re
jean luc
iti néra
l'é mergence
si r
introdu ction
ba ch
tu telle
x ité
ent endu
l' y
comple xité
ren dement
mar ès
pal marès
r n
mon i
végé taux
bro wn
édifi ce
fau sse
inhu mé
symbo lis
télé phone
l'ac cent
minis térie
ori que
par lant
goth s
rassemble ment
di dier
vi ème
neu vième
chau ff
pri or
hé lène
dossi er
h il
ha ï
ch or
ve ctorie
ac o
appli quée
mon aco
posi tive
ze us
renouve au
mo biles
numé ros
holly wood
bombar dement
car rières
ca mar
tis h
consac rer
descend ance
dégra dé
l'ac quisition
w ards
s ili
m ence
par tant
le vé
jusqu’ au
ri gou
domin é
man œuvre
m m
ci o
uti lité
l' allemand
quit tent
sus cite
prom u
ta bilité
é cran
ster dam
b ain
sa le
musulman e
camb rai
chau s
souvenir s
le cteurs
profes seurs
fen êtres
dange reuses
occident ales
no ctur
cla i
he in
po ètes
camé ra
l' approche
locu teurs
com tés
ch aux
l itu
cour tes
éta ires
l’ union
p uni
sainté tienne
colomb ie
cérémon ies
câ ble
w it
sou mise
d ney
vul nérable
cou pa
fi bres
por traits
sé isme
métal lique
hu mour
op inion
va gues
sui vis
champign ons
constitution nelle
it y
quet tes
traver ser
récent s
rest a
parta gé
am ène
let tes
conç ue
sé bastien
op ie
concer nent
saint louis
provo qué
crè tement
im posé
suff rage
li by
macé doine
ouv rier
con tenir
judici aires
proté gés
l'escla vage
jou x
mon tage
ber to
ille ment
par venir
dis poser
je ction
mom ents
rela tifs
ne urs
mes se
tâ ches
évolu tions
bles sures
gra vitation
g ise
chi rac
l' après
ul time
instru ctions
