_ d
_ l
e s
e n
_ p
o n
_ @
_d e
_ c
_ ,
_ s
a n
r e
_ a
t i
_ .
o u
q u
i s
e r
_l a
i n
en t
_ e
a r
_ m
l e
i t
u n
_l e
o r
_ f
_e t
_ t
u r
_ en
i l
o m
ti on
_ r
t e
_ à
_l es
_l '
_ n
qu e
_d es
_ un
_p ar
es t
m ent
a l
u s
_p r
_d u
_ v
an t
ou r
_ é
i e
_ b
_a u
r a
m e
an s
_ g
on t
_ qu
c e
_d '
a u
_ est
_c om
e l
a tion
é s
a s
r i
v e
o l
a t
é e
_d ans
_d é
n e
c h
_c on
s i
_ re
_un e
r es
c i
_p l
s e
_ j
a i
_ il
a g
a is
d e
_s e
_p our
_c h
o i
m p
t é
l i
_qu i
_c e
_ h
o p
_ in
_r é
_ que
r an
a it
a in
_s ur
a le
l es
d i
_pl us
er s
o s
u x
o is
u l
_pr o
a c
t u
é r
_s u
_t r
p r
a b
è re
t re
un e
f f
ur s
_ ou
_s on
_com m
_ :
or t
u t
i g
it é
è s
en d
_d i
a m
qu es
ve c
_a vec
ou v
_ an
_s ont
a p
_ o
é es
m i
il le
v i
ai re
t r
l le
el le
o t
_p e
_ »
i que
is t
o g
_ «
u e
c tion
p e
_é t
it e
i c
i on
_par ti
_s a
g e
u i
_p as
t te
_e x
ag e
_f ran
c es
_n om
é n
_ i
or s
au x
in e
_com p
_t ou
on n
_l ’
é t
ent re
u is
_m o
_f or
_con s
_a l
i v
_n e
t er
b re
an d
p ar
ch e
o c
_m ar
_com me
r é
ti que
_t ra
u re
e t
_m ais
_au x
_a v
er t
en s
i r
on s
en ce
o it
_p re
or d
_a c
_de ux
é ri
e mp
_qu '
_s ou
_ce tte
_a r
_pre mi
_s '
_l' é
on d
in s
_t er
an ce
_s es
_a p
_e lle
_c ont
t es
is e
m es
é ra
_c ar
_s i
oi re
_ entre
u b
d u
ation s
m b
t res
a ti
oi r
_g ran
a y
_é té
_ %
r it
_f ait
_p er
i en
ale ment
a d
p h
c u
il l
_d ’
ment s
_d' un
_c l
te ur
ti n
a ce
_comm une
ê me
pr ès
_dé c
_j e
_d is
i d
tu re
_an n
_pr é
ant s
si on
_d' une
our s
_g r
_f in
ar d
o y
n i
_l i
_s t
ci p
ou ve
_pr és
u m
t s
ê tre
_ ont
_m é
l é
an g
_ ;
_ré g
_m on
a v
ai res
_c es
ti l
_s er
_é c
e x
è me
al es
_d ont
ain e
' est
_é g
_t h
_ on
ti f
_comm un
al is
_a in
_fran ç
_ain si
_le ur
n es
ol og
o ci
_sou s
_a près
_a us
_pe u
_ or
_nom bre
p o
c t
_ es
_ y
m in
le ment
_l ui
en ne
er re
_p h
_a s
_m ême
ub li
_al ors
_r és
é g
_i mp
_p uis
_l ors
tion s
_m a
_g én
on ne
_g u
_p o
_aus si
_c el
tr u
_pr in
o b
_di ff
as s
an te
_franç ais
_s y
te ment
d es
_ ti
_p ol
_pr op
c o
_in ter
_c ol
at s
ou p
end ant
ti tu
_t emp
t t
i m
_l' in
e au
_f il
è res
v en
é d
ent e
ai ent
u til
_a d
_re pr
is te
_pe ut
_m il
_ch e
_ être
_j us
_fran ce
_ég alement
it u
al l
ab le
_qu' il
p ort
or m
f in
té r
_a m
_tra v
_p ers
p uis
i ques
_v ille
s t
ie urs
_se c
_o ù
_m e
_tr ois
_p os
ain s
_parti e
_p ay
_de puis
ur es
_c or
_r es
_ch a
t en
ouv er
_c r
_re c
é m
_o b
te urs
it és
_c ert
ig ne
util is
is s
ie u
_r en
_pay s
_tr ès
_gran d
_ap p
b le
_ w
_ét ait
on g
_tr ans
_for m
_l' ar
in t
_c 'est
_n ot
_plus ieurs
ig n
_c a
ou pe
ér ie
_p ubli
ra ph
_ k
_premi er
ti v
_s ol
au t
_l' h
_ex p
_v i
_rég ion
_t our
_de r
ent s
_c ré
_f ut
_c o
_s ain
ti s
_c our
v ent
qu '
_n '
_dé b
j et
_s oci
_r ap
_ z
an is
_m an
_m ont
ci en
_premi ère
_v ers
_pol i
l u
_e ff
_s é
on c
_per me
r on
_ann ées
_s el
_con f
_ch ar
el les
ag ne
_au t
_b as
_cont re
_s itu
_a b
l è
us e
_con c
_prin cip
_ac c
ag es
_s p
am ment
_su p
a re
og raph
ti ques
_j u
_dé p
_sel on
_p op
_pro du
v er
in g
_ utilis
ou s
_ré p
_con n
e c
_tou t
_p i
ol u
_der ni
_pop ul
_dé par
_n é
u es
ar i
_n ouv
ur op
_m us
_r om
_n ation
_b ien
_il s
_pers onn
_é le
_m in
al ité
_l' an
_c ap
en ti
_b i
an de
_é v
v is
_diff ér
i re
_av ant
_d és
ain es
f i
_s c
_h ist
_n ord
v el
_gu erre
_s ans
or te
qu i
o de
_as s
_c ul
g l
_not amment
_l ong
is se
_ter rit
_l' un
o le
ag n
at ure
as se
_t y
ction s
_ ans
_b r
en se
f ic
g es
_mo y
an c
_n i
_d onn
_s oit
l les
_jus qu'
ce p
_o c
m é
it s
_su d
il les
ri c
on om
_p éri
vi ent
ie ux
ais on
_su iv
_c in
al i
_di re
_au tres
_que l
_d' au
_f e
_ │
si tion
ri b
_sain t
_gran de
_f on
_c as
or i
co re
ne ment
ais s
vel op
_r ou
_n ouve
_c an
_m al
_d om
er v
_in s
ch es
_re l
_m at
t h
a ille
_c li
_dé velop
_repr és
_d ur
it es
_temp s
_in f
_par is
_es p
_f r
ch er
_f ond
_imp ort
_j our
_a g
a te
_m ort
in es
a î
_f ois
_d r
c l
_a tt
_f er
_le urs
m is
ti ve
_en core
v es
_pas s
_ap par
_gr oupe
f ois
_su c
è ne
op h
_j ou
mb le
end re
_l' ex
_p ort
ouv ent
_pe ti
_de v
_r i
_par t
olog ie
_cons titu
cu p
_mo ins
n ée
_dépar tement
_v ie
li g
_cel ui
_p ouv
é té
mp l
_pro f
_qu at
_for me
_tou te
_f a
m ée
_e urop
ant es
_v er
_c elle
_o ff
_déb ut
_d onc
_tou s
_l oc
_c at
_ser vi
i ème
_fil m
di tion
t a
el s
o se
r ent
_mo d
éra tion
œ u
v ers
_f am
v re
_ op
_parti cu
_cons tru
_b l
m bre
_n o
_r oy
ê te
_pl ace
_poli tique
_ré f
_th é
_ ent
_mon de
_n on
_je an
a tique
er n
_n ature
_l ég
_parti r
d é
_z on
re r
_dé f
_a ff
_con si
elle ment
g anis
_d ou
_ex emp
_c ent
_su ite
us es
_ré alis
_l ang
_cli m
ér al
_app el
_h om
i x
_f aire
_c ours
_l' ac
ô le
_dé m
_av ait
ou t
il i
_p endant
n ent
_g ouver
ét at
_prés id
ent es
ch é
_m et
_d' é
_h ab
_l' a
_v is
t ra
ab les
_particu li
_é p
g r
_représ ent
olu tion
_m en
p endant
_c ô
_consi d
_in di
_pré c
_ét ats
_r oi
_f l
éri c
_r est
_péri ode
a teur
_quel ques
ur b
_nouve au
iv ers
_perme t
ie l
ograph ie
_é tu
_nouv elle
_sy st
b les
_av oir
po que
_v ari
_con se
is es
_publi c
_n 'est
_eff et
_t e
_g ra
_cert ains
ist es
_se u
an ge
_gén éra
_l ieu
om b
_car ac
_d'au tres
un i
_g é
_comp os
_popul ation
s u
é ci
_français e
m and
er g
es se
_s ouvent
_r a
_commun es
m an
_c ou
c ul
_ce pendant
_li b
_ré v
_quat re
en ces
o d
_d ès
_com pr
a de
_b at
ra tion
ri v
l er
i ti
_exemp le
i es
_c entre
_cha mp
un is
_pl an
_v ol
_p at
_au tre
_fon ction
it al
_nombre ux
_territ oire
_v ic
oi res
_comp te
_pro g
on de
_cont ra
_m es
_a lle
_gén éral
as si
c le
m ar
ti ent
i de
_prés ent
_pro v
_ma j
c ès
ol es
i mp
ê t
ati ve
_cul ture
n ation
_comm er
_sp éci
_man i
que l
_de vient
_europ é
our d
a z
_d' ar
si ons
u it
i ci
ère ment
ig ine
oi x
_dur ant
_m is
ul t
_peu vent
_dr oit
p os
_en vi
_dé fin
it aire
is me
_d' in
_si è
d us
_trav a
_m ét
_s al
_ni ve
an ces
é lé
_te ch
_tr ouve
min ist
_l iv
_b ar
_am éric
ur ent
d ent
p l
_i m
_li m
it er
_syst ème
_dévelop pe
_fam ille
_in c
aî t
_pro b
_pouv oir
r o
rib u
_h au
ap p
_l' or
ces s
_mon di
_d' h
_b eau
_l igne
f s
_v ill
_déc l
_ét ant
y ant
ri ère
ti en
ti er
_c ant
our g
_éc onom
_cha que
_l' al
ou l
e ur
di c
_l og
_derni er
_con tin
_gouver nement
_che z
ou est
te l
_se p
_des s
_c ri
es p
_jusqu' à
om me
_su b
ti e
è g
_l it
li c
è de
_l' emp
i er
_d' a
_com b
ri que
_ '
_perme tt
o ie
m o
_a fin
i tion
_de ven
d re
_ce t
om p
_inter nation
_ty p
_ti tre
_pl u
tér ie
_ét aient
_pos s
_pr ès
ér é
ab l
_hab it
m me
mb l
_ x
g u
_re t
au me
h ui
_ou v
_d oit
_ap pr
_a yant
_qu ’
_soci été
_res te
re t
_pro jet
_nive au
_pr es
j ourd
_d ist
_c al
us s
qui pe
vis ion
_ré c
_conse il
_ch â
_mil li
olog ique
té g
en c
_ urb
_t ot
_a ur
_fil s
_d' or
_hist or
_états unis
_m i
_s érie
_or ganis
o in
_g ar
j ours
_au jourd
_ œu
_po int
f orm
su ite
_par mi
oup es
ille urs
ô t
_ac tu
_rap port
_form ul
_en f
_m er
a teurs
é l
c ri
_ca mp
_rép ubli
tif s
_sec ond
_qu ar
cup ation
_e lles
_s ens
_tou jours
_m ois
_e mp
ra s
_re tr
_b ou
_éc rit
aiss ance
â ge
_nation al
_l ou
_t ard
tr ie
_m ouve
te mp
_m ot
il ité
_mar qu
is tre
_bas e
_la r
ra it
_f ort
ist oire
_se ul
z e
_es s
_tou tes
_moy enne
_présid ent
_m ain
_dire c
_cl ub
_clim at
_en suite
_cin q
n é
_g l
y p
or is
au l
é v
_t en
_s ig
an n
ot h
po sition
ien ne
us ion
_é ch
om m
_col le
p s
isse ment
è le
r ée
ui re
_r ôle
_m uni
o re
_servi ce
_s or
_c ir
_re lig
le x
_ann ée
_situ ée
_formul a
è ces
_formula _
_nombre uses
il es
_l u
_ce ux
_h e
_l oi
_sol s
' hui
_carac tér
_j o
_v en
_cap it
_en se
_m ise
_g en
_hist oire
_pos si
_pi erre
_f ace
c ont
_grand s
_an gl
o x
du it
ord re
_ad minist
_aujourd 'hui
_f ont
b um
on y
ati ques
_in st
_développe ment
ois e
_i d
â ce
_l' au
_s ’
c ture
c oup
_par fois
î le
ri g
_moy en
mb res
p ond
_trav ers
_a t
_ty pe
_ is
au té
_si x
_zon es
_v al
_cert aines
_j am
_gr âce
_r èg
_re cher
a vi
_ter me
or ité
_trans port
_g re
_m or
_t ant
oi g
_temp éra
_châ te
i ent
_si mp
_s our
_cant on
pe c
_qu' elle
_é l
_re f
_ren cont
_t élé
_c oup
ci dent
_a illeurs
co le
_sec onde
_th e
_personn es
g ré
_an ci
qu er
_d’ un
_s cien
_ter re
_t ex
i me
_or ig
_premi ers
_re mpl
_fran c
il s
_cat h
_cel a
_h um
_rec onn
ai r
_re ç
y si
on e
_d oc
_f ré
_ret our
fic ation
_lang ue
_l'an née
é tique
_ass oci
_envi ron
_cor res
ais e
an e
_mar i
_deux ième
_tra dition
_corres pond
_sy n
_l' oc
_vic t
n er
_a tte
_p ère
ois s
_di vers
_par c
_off ic
_suc cès
_produ ction
cri p
m ande
_s au
_ser a
er ie
_v ale
_me mbres
_d’ une
po se
_é lé
_an cien
_ac tiv
_pr end
_b el
o v
ra ge
_r end
è se
es tion
_différ entes
a me
_j ours
ac es
_au c
er ne
_i i
_rés eau
_je u
_s ign
é c
ol l
_au g
_nation ale
_l' état
è te
_r aison
_lou is
_v e
_c ad
_mondi ale
ass in
_tech n
_s' est
y n
é cu
res sion
_pr ix
_g au
_roy aume
_pr is
es s
_b â
_muni cip
_che f
_jour n
_t aux
è ce
_cl assi
f or
_re mp
o che
_j ac
_cor ps
cep tion
_beau coup
_né cess
_lar ge
m mes
pe ct
_trava il
è rent
_n' a
_la que
di tions
ç on
_dis tin
_parti cip
_prop ri
_dé j
_laque lle
_r is
_f ais
_p or
_f ra
_toute fois
_e mpl
ve ment
_alle mand
_dé ci
u g
éri que
_cont r
é li
_v iv
_cré ation
on i
_l ig
_particuli er
b e
_pr iv
ci pe
_cons t
_puis s
_dévelop p
_rap ide
en nent
_prog ra
_caractér is
_l' ab
_déj à
_v oy
_zon e
è tres
as ion
_sig ni
_d' ac
_p orte
_v oit
ag it
_s aison
_re gr
_p al
t on
_n orm
_b rit
_histor ique
_l'é c
_constru ction
_lors que
_rév olution
p i
_châte au
_habit ants
’ est
_j ap
_l'é poque
_res s
è nes
_sup érie
_f our
_différ ents
si onn
_long ue
_ch ange
ra le
_ar r
_eff ec
t out
_sur tout
_ch i
_l iste
par t
ér ence
_l y
_se in
u d
m er
tr o
é ment
v res
_l' ense
_f ig
_ us
r is
_ph il
_prés ente
_f ai
m ême
_d' ex
_commun auté
h n
_thé or
û t
u ve
_v a
li er
_jap on
m a
en nes
gl ise
ti ère
_s ite
_char les
_mais on
_gre c
_l'é glise
ri er
_vill age
_sa v
_prov in
and is
t ant
_po in
_m ag
é lè
_champ ion
_entre pr
_ex iste
_f ac
_t andis
_v oir
_cons erv
r y
_mouve ment
qu ent
_r ob
_républi que
_ré par
_f i
_mus ique
ou se
_dev ant
ur i
li que
_prop os
ti ers
_aut our
_je une
_l' ins
x im
ni ques
_jou e
_re j
_l'h istoire
_peti t
_généra lement
_d it
qu é
i vi
b res
on ce
_nature l
_d ra
_plu part
_l' ob
_in dus
_ét abl
_pat ri
_l' e
il li
_d onne
_f le
_je un
alis te
té ra
_t ête
ti t
_b ut
_d' en
_st at
_pro che
_re ven
_ ant
_dis p
_al l
u le
_pré v
_commer ci
_mal gré
_d' ab
_un ivers
_mé di
_re v
en ant
_rom an
én é
_seu lement
_ch er
_pré f
_ch ap
_trois ième
_hom mes
_aur ait
œ ur
térie ur
_l' imp
_orig in
_qu and
onne ment
_f urent
è mes
_l' est
_mani ère
_d ens
_l' on
g é
o te
_exp l
_an im
_t u
_di x
_b ois
_en fin
_as se
_ag ric
_utilis é
m agne
_s tru
oc k
_prop re
_c y
a ï
anis me
res s
ten ir
le ction
al y
_gran des
it aires
_le t
on ie
_ob s
p end
el l
_rés ult
_mil ieu
_dés ign
_ iss
_dom in
_pr om
ti tion
_e ux
_l' en
_col l
_europé enne
_lit téra
_trav aux
at ta
_tour n
du c
_dire ction
_m y
d r
_v illes
_angl ais
_produ it
j ec
ie lle
it h
_fe u
_déc ouv
_donn ées
_enf ants
_m ati
_con d
_l'ar mée
titu de
_g e
_suiv ante
_d' al
_pro t
_ ord
_des tin
_v oi
u c
_ar tis
g er
_sep t
di o
_cel les
_cô té
_l' am
_prés ence
_p ap
_ca use
ra î
_peu p
_st ation
oc ra
_bâ ti
ab lement
temp s
_é poque
_comp agn
_liv re
_import ant
_cin ém
_s' ét
_dé n
_ ital
ti c
_tempéra ture
_administ ra
_derni ère
al ités
_m om
_cou le
_p u
ch ite
_en v
ven tion
_l'un ivers
_princip alement
crip tion
_conn u
_cl ass
_éle ctions
ysi que
_min istre
_je ux
re ur
an ique
_bat aille
_pas se
ran ce
_premi ères
_ver sion
_me ille
ra in
le v
_permett ant
_mil itaire
l ie
_éle ct
_cl asse
_celui ci
r u
_su ff
_économ ique
av ant
ur é
_en g
_s ort
_et c
_v all
_n um
i le
_che v
_éle v
_qu ali
_cad re
u el
_b an
_t able
_l' esp
_f ab
_mi ch
_st y
au d
_situ é
_comm ence
_aug ment
_s' agit
_form ation
_seu le
_b ord
_dis par
ces si
di re
_import ante
ét és
_t omb
_po sition
_ /
_m ul
_d ate
o w
_nom mé
os s
_qu it
_acc ue
is ation
_ph ot
_fin alement
_t op
_ma î
_sup p
_le quel
_territ oires
_tr op
_r ac
_c it
_mes ure
os oph
qui p
or ation
_se igne
t ures
_jam ais
tive ment
_colle c
_nouv elles
_siè ge
_jo hn
p pe
o des
_poss ède
u ment
c éd
a di
alis ation
dé pend
_r ue
u te
du ction
_b on
ê ts
_si m
_ne w
_s us
_l’ é
_dom aine
_comb at
d it
_l'ense mble
_in iti
_étu des
_att a
_sur f
_h uit
_phil osoph
l and
ion s
_l' île
ri ce
_an g
_n ég
_recher che
_ser ait
t ère
_h aut
_t ri
_ét at
_situ ation
ert s
de c
_mét h
_su jet
_fe mmes
_sup er
t ent
_l' ouest
ati f
_dis c
us se
iss ent
_dé ta
_s h
ograph ique
m ont
é b
_ter res
_poli tiques
_p s
_es ti
j e
a h
n el
_n ous
c rit
_f éd
urop e
_possi ble
_al bum
aî tre
_l' aut
c asion
mé di
ar s
_d' e
_car rière
_fe mme
_d' être
erg ie
_f av
_s omme
_milli ons
_a li
_peti te
_t ent
_vi ol
_inf lu
_ch am
_l' ad
_ess enti
_un ique
_de mande
én om
_me mbre
_rou te
er ve
_sc ène
_scien tif
_rapide ment
t és
mis sion
_p ont
orm ais
_dés ormais
ill er
_s o
an ci
_fa çon
_an d
_f ille
_rés id
ér it
m ment
_sy mb
ab li
_l' ét
en si
_mom ent
_l' op
re g
_b ourg
o ite
_b ret
_mat ch
à dire
u li
tiv es
_ou tre
_d at
ais se
â tre
ic ation
tiv ité
_p a
_ ol
mi que
is l
_t rib
olog iques
_car te
x e
_d' eau
_lui même
_esp èces
_l'or igine
_servi ces
di fi
tr op
_mar s
_acc ord
_rempl ac
_a ra
d s
_d'ab ord
onom ie
_qu' un
_pl ut
ille t
_appel é
_pro te
_qu'il s
_suiv ant
or me
_gau che
_ –
_h en
_dép l
_pr atique
_pe in
_t els
_c am
al le
_œu vre
_franç ois
ch i
_ —
_mé té
c ur
_agric oles
_b éné
e reur
_conc ern
u elle
_ âge
_l'é v
ter re
f ie
_particuli èrement
_e u
_é qu
is c
_étu di
at oire
_cré é
ét aire
_é quipe
_ch ois
_d' état
_mé d
_c ’est
_tr oupes
_oc cup
_du c
_généra le
ais ons
l in
_préc éd
_ge or
_g al
_v ue
_al li
_tr ouv
_qu' une
_s ant
_typ es
_o f
_capit ale
_r u
r és
_c ité
j ou
_fai ble
_prof es
_ar m
_ph ili
_ét ran
mo ins
an moins
_né anmoins
_cath ol
_m ère
le terre
_europ e
_compagn ie
_bl anc
_l' at
ait e
an ti
_se mble
_rencont re
_ â
_comm and
_ch ans
_me ur
ous s
_a éri
_or ient
_ent raî
an che
o sition
_cons é
n elle
_retr ouve
_a f
ite ment
_l’ in
_p aul
_anci enne
_donn é
_gr oupes
_contr ôle
b ilité
_d ieu
_effec tu
di d
o que
_tra ité
er a
_p ot
_r ay
_contin u
_l' ag
o ff
_l ut
_région s
_vale ur
_jusqu' en
r ant
_sty le
_défin i
_dr oite
_p ens
_l'emp ire
o ût
ay e
_di vision
o ch
_offic ielle
ra ges
_b our
b li
en de
_consid ér
_l' une
_mul ti
_f aut
_in v
oi vent
_l'é quipe
_film s
_s ch
_ciném a
_princip ales
_cons ac
_ter min
_jac ques
_la iss
_internation al
_mar que
_la tin
ri es
_p y
_m oi
_r uss
_c élè
ati ves
_c oupe
_l' ordre
ten u
_res p
oc cupation
é on
_é quip
ô ne
_rég ime
_déc is
ur ation
_p ie
si tions
_l'é cole
k e
_v ing
mo ine
b ert
_ne u
_élé ments
r ie
_l'univers ité
_décl ar
_rap p
_activ ités
_asse z
_re mar
_d' at
_mé c
ac tion
_produ its
_rés ist
_h y
ur g
_nouve aux
_ch ac
_n oir
_m ai
ard s
_re g
_contra ire
_ex ist
_princip al
_la c
_can did
_constitu tion
r ou
_mani f
_v oie
u ments
id é
_qu’ il
_tot al
té es
_trans form
_mé trop
ces se
_théor ie
r onnement
_av aient
ê mes
_patri moine
_plut ôt
_p é
_v it
_journ al
_cat ég
igne ment
_œu vres
_t elle
_v end
_sour ce
_re p
_b er
_mar ché
_t end
_l' av
_rom e
aille urs
_poin ts
_resp ons
_c er
lic ation
_améric ain
_h ar
_l anc
œu vre
_for mes
or k
ce l
_maj orité
_inst all
_ense mble
_oc cident
_déf ense
ative ment
_n av
_t a
_cent r
_l'an cien
qu ant
ad es
_for ce
_quar tier
g ent
i a
_ris que
_l'ex p
_typ ologie
_mod èle
t tes
_ u
_se m
_s' ins
_progra mme
_l ieux
_pr endre
tér êt
_pers onne
_l'in ter
_s ac
_surf ace
_préc is
_l'au tre
ti é
_j an
g ue
_compos é
_c'est àdire
_rég uli
_t ém
_é n
ab ilité
_di v
_l' ap
ann ique
ci ence
ul aire
_droit s
riv ée
i res
_par lement
_l ance
ac t
_p le
_éle c
_des c
are r
h e
b all
_princip aux
_in té
_rob ert
_dé ter
d uire
r ite
_fais ant
_l' eau
_réf érence
_v oix
_ob jet
ér o
_dess in
f rance
_four n
_m aire
_ins titu
_ad op
_déci de
_lang ues
_conf l
_d yn
_d' am
_vict oire
_men tion
_jeun es
res si
_inf orm
_popul aire
ai x
_log e
_ch in
_ré un
b ourg
_ch ré
_ad ap
_comp lex
_f ou
_pr ise
_ju in
_id en
_fin ale
_sé par
_pl ac
_thé âtre
_commer ce
_cha î
_mé dec
_compr end
_cr oiss
vi er
i ers
_b es
ai de
_st ra
y mp
ac ité
_celle ci
_for te
_voy age
_ob tient
én ergie
_gé ographie
_provin ce
_ri vi
_g er
qu ence
_ab s
ten ant
_gen re
p p
_f ix
_su isse
me t
_brit annique
_hau te
ici le
_c iv
_ving t
_mus ée
_indi vi
b es
ri ge
è ve
_l’ ar
_rest a
_t aille
_s' en
_j ui
_auc un
_ju illet
_vol ont
_con ditions
ti cle
_ph énom
c ons
é h
l an
asse mbl
a ch
_camp agne
ar es
_qu estion
_r h
_fr ère
v ille
di que
_qu' en
_e aux
_ch ine
_prin cipe
lé ment
_seigne ur
_c ouv
i ens
ganis ation
_vall ée
_d' av
_mus ic
_n ’
_stru cture
_for ces
_dens ité
o bre
o int
_reç oit
fic ie
iv er
_cri tique
_obs erv
_rou ge
_inter pr
_mar ie
_profes sionn
_met tre
gl om
_qu ant
in dre
te mbre
ém ie
_ég l
_acc omp
_hom me
in te
_champion n
_dépar t
al og
_v ites
_ar ri
_mat h
_re tra
_li bre
_top ony
_dé g
_com te
f ique
_f es
_pos te
_pass age
_dém ocra
_sep tembre
_f ron
_co de
_b e
_comm enc
qu ’
_fin anci
_dé ce
_sé cur
_a ir
_v ois
y m
_personn age
_d'or igine
_trans f
c les
ver se
_ac cep
_de mand
_en reg
n ie
om e
_ps y
_di rige
_é lu
_techn ique
_pl ate
_vi ent
_vari ables
_mé m
_mar ch
_no tre
_pr i
_étran g
qu ée
_dép end
_simp le
_év olu
gr ès
_s an
age ment
_res pec
h an
en sion
_la b
_lég isl
_publi que
_consid éré
_g are
_déter min
ort ance
_exp éri
_con cep
_multi p
_supérie ur
ot te
_f o
_auc une
ag er
_actu elle
_l'un ion
_moi tié
_char ge
_lors qu'
_per mis
_internation ale
_l' ass
er res
_prote ction
_n aissance
_f é
_r ur
a illes
_esp agn
r il
_aff ir
s on
_m assi
est re
_regr oupe
a ment
i ment
_lig nes
_di rig
_stat ut
_pres que
_d oivent
as e
_d' an
_v ra
_l’ h
_bi ographie
_règ ne
_sant é
_l'h omme
_atte int
_comm is
_v in
_fes tiv
_publi é
_quali fi
_g estion
_diff ic
_l à
_dist ribu
_imp os
ô me
_anci ens
_n or
_sor tie
_g az
_mod erne
ct ures
_t el
_au près
_s port
_sor ti
_mont re
os c
_essenti ellement
_l ond
ve ur
_utilis ée
_mich el
_an ne
_n at
ne ments
_l ois
_sec teur
_nom s
te x
_s oi
on ique
_appar aît
o k
_parti s
u tion
_représ ente
_cons omm
_b al
_o ct
_meur t
and re
on es
or de
_m as
_derni ers
_v érit
_d'a près
_phili ppe
_ép ouse
_qu alité
_ref us
tel l
_inf érie
_pal ais
c teur
_déce mbre
_ann once
_or g
_ab and
vi ennent
_jan vier
glom ération
_tech niques
_déc rit
_ou til
_a mi
_m and
ét ait
è les
_v ir
_parti es
_bi bli
_aut or
ar t
_s pect
_rel ie
ace ment
_fo ot
_s tu
_rel ations
m ine
qu is
_mo de
ne ur
_b o
_b assin
_entrepr ises
_ma xim
_empl oy
ouver te
ert es
_cent rale
_pro tég
_sp or
qu ête
aly se
_re li
_che min
_l'é p
alis me
_sou tien
_p én
aiss ent
t or
_cond am
_fr ont
ori ent
ar ch
_permett ent
ad a
ti ce
ul ture
_constru it
_comm ande
_dis pose
_col on
r ont
a mp
_par ois
ac c
_l' app
_cour ant
g ique
_tex te
n aire
_prin ce
_vites se
_peti ts
_regr oup
_h ér
f e
_h u
_st ade
_ph ysique
ran d
_prop ose
u té
_min ist
_comp é
_maj e
_n ob
res se
_sécur ité
_n ic
_cré ée
ti ne
jec tif
_hen ri
onn es
_prog ressi
_l' id
util ise
_f usion
ti enne
_ins tru
_cal cul
_s it
_ra dio
_ch ris
ri r
_cir cons
ê tes
_indus trie
_pro céd
_sec r
_r atta
_fon ctions
ces sion
_l' us
_di min
_soci al
è ge
_appel ée
_for êts
isse ments
_cert ain
_peup le
le magne
_sour ces
au de
_b onne
enti el
ment ation
_my th
_ress ort
_l' im
è que
_puiss ance
_ î
_prob ablement
_h er
l ant
_pour rait
_deven u
quel s
_comp t
_y ork
_parti cipe
in ation
_mil itaires
_d an
_comp ar
_jusqu' au
_répar tition
_v as
m ain
_di pl
_l and
è tre
_qu' à
iv al
_transport s
_améric aine
_mé dic
_long temps
ê que
pr ise
_mis sion
ci er
m m
_t ur
_ch oix
_l' âge
_lu mi
a k
tis se
_commun ication
_constitu e
_att ribu
_carac tère
_m ol
_cont ribu
c te
_personn ages
_large ment
_ch an
d er
_l'ob jet
_f it
_sit ue
_dis pos
_i r
_coll ab
_chi ff
os se
_sol d
_op éra
_festiv al
_s én
le t
_par all
_marqu ée
_direc tement
_conf ir
_sav oir
_urb aine
ouver ture
_mati ère
_in dépend
_princip ale
_résult ats
_ol ymp
_change ment
_d' entre
_p ub
utilis ation
_classi que
é rer
_divers es
_w e
_cham bre
_pr on
_célè bre
_nature lle
_l'emp ereur
_c œur
_ter rain
_voi es
_d on
ç ant
_m ac
_h ors
_qu éb
ap tis
_nécess aire
_r o
h i
ô tel
_dou ble
_manif est
che c
_championn at
_im m
_étu de
_ter r
_m asse
_v oire
a ie
_s ouver
_n ap
_pass é
_b en
_rivi ère
ve mbre
_de l
_psy ch
_s ar
au g
tr uire
m ie
in d
_sou h
_con temp
_contemp or
_col lè
_l'al bum
_deven ir
id es
_métrop ole
_he ures
b as
ag é
_pré cip
_no vembre
_l' as
_fig ure
_foot ball
_tex tes
ri ch
ond issement
_pi èces
_scien ces
_k il
_rés erv
év rier
_r ang
it ations
_m au
ti me
_op pos
_n uit
_rec ons
_conn aît
_loc ale
_ri ch
_oct obre
_tra itement
ent rée
_cour onne
_b ande
_ob lig
_math ém
_meille ur
_pr im
_donn er
_prop or
an ne
_cr ise
_mari age
or té
_cir cul
_rel ativement
_é d
_n avi
_cô te
_pro xim
_comp osition
_vale urs
_pro cess
c ée
omm un
ati s
_vi a
_c av
_aut om
_r endre
_diff us
o ine
_réalis é
_roy al
_pr ol
_inter ne
iel s
_pap e
_oc é
ar ité
_proxim ité
_f évrier
_î les
s us
_coule ur
lè mes
_télé vision
or é
_direc teur
_hau teur
ri m
_ &
_lim ite
_process us
m atique
_comp lè
_ utilise
ang leterre
_let tres
_per d
in é
_l' es
_par ce
ê che
_disp oni
_joue urs
tru ction
_ ?
_pr esse
_prof esse
tif ic
_lond res
on te
_de me
_b ern
_a mb
_cher che
ë l
ite ur
lè ve
_su it
_l'ab b
_naturel s
_g ard
_b ri
_l oire
_consid éra
du ite
ang er
che v
_lib er
_expl oit
_l'ar r
_au teurs
_re m
_p oi
c ent
_p aix
_l'oc cupation
_so vi
_bel gique
_con v
tif i
lu ence
_mé l
oci ation
_relig ie
_mo b
_év é
e ux
_en ti
_m ic
_j ard
_ma ch
_siè cle
_dis position
_ch r
_por tu
_jus qu’
i ble
_s' il
it ation
duc ation
_pub lie
_m ieux
_élec tr
_s ites
tex te
_allemand s
_clim ats
_doc ument
ose ph
_prot est
_b ure
_env oy
_l'imp ortance
_di vis
tu de
_sur n
_prob lèmes
_r am
_tém oig
_conn ue
_stra tég
n ant
_derni ères
_pré par
_ !
_concern ant
l us
os p
_ter mes
_cont en
ut es
m age
_administ ration
_p il
_v ain
_chaî ne
_caractéris tiques
_trib un
onne ur
_utilis és
_p ou
_rec ord
pr it
ar de
_s' app
_longue ur
_dén om
_su ivi
_ex er
oi le
_sé lection
_remp orte
_v u
_mouve ments
_quel que
_se ine
_l oin
_républi c
_t est
_b omb
_f isc
c ommun
ital ie
_ac cessi
_in t
_m ur
op ort
_dur ée
_e mb
abli r
om é
_accomp agn
_sain te
_soci ale
iss ant
_s ang
_rel ation
_com ité
assembl ée
_en c
_a oût
dus trie
_p au
_can ada
_ép is
tit ul
_syst èmes
_chap elle
_l’ un
_av ril
_car tes
_trava ill
_s te
les s
minist ration
_ar chite
_sal le
_prob l
_probl ème
ill on
o ï
a ve
_table au
_prov o
o rer
_pr ati
_l' aide
_in titul
on ge
yp oth
ra ine
al ise
_signi fie
_commis sion
_com ment
_mont agne
_contin ue
_ren for
_for tement
_l’ ex
ut és
_dou te
_dés igne
es te
_re ce
_mat érie
_activ ité
_prof it
_for êt
_ch asse
_rép ond
_l'in f
_territ ori
ist ence
pl oit
_f re
ni es
_littéra ture
_mété or
_scientif ique
er ver
_v olu
_d' ailleurs
se e
_d oll
_bibli oth
_s ensi
_c op
_b le
_kil om
_cert aine
tr ême
_indivi du
lé g
_an ti
_russ ie
es ti
_améric ains
_lig ue
_liv res
_déta ill
_liber té
y s
ort h
_élé ment
_ju ge
ph ère
_norm and
_v ég
_région ales
ê tres
_lumi ère
_chin ois
vi ron
_d' aut
_chac un
an tin
_se x
_cathol ique
_g i
_ass ure
_brit an
_pass er
que lles
_mot s
_relig ieux
_let tre
_ti tres
ol ue
_att est
d in
_h a
ur ée
_rom ain
_m ass
_maî tre
_représent ant
_s ing
_réf ér
_classi fication
_jus tice
ch ée
_compr is
_propor tion
_con ç
_département al
enti elle
_fer me
ali er
_p ic
_n' y
_gl ob
_centr al
_ré alité
_l'in térieur
_ali ment
onc é
_commun ale
ét ation
_britan niques
_l'oc casion
_tr ouver
_f au
_ii i
_e d
_a it
_a lex
_can al
_fav or
_méth ode
_confl it
_m ad
_peut être
_a vi
_comp ort
_d ite
_sc én
_pl a
_mon uments
_fé min
_mo difi
_con duit
_mal ad
uc lé
og ne
_n' ont
_dé tru
d uis
_tr ou
_import ants
tra ction
_cap acité
_rom aine
_croiss ance
_pro ven
ad émie
_t elles
_éc oles
_cré er
_d’ au
ou e
e ff
_diff icile
_e l
ér oport
_mais ons
_imp éri
ci enne
_t or
_conn aissance
_super ficie
_pour tant
li min
_pl antes
_par le
_chans on
_exp os
_v an
_gu ill
ci le
_se mbl
ot s
_ris ques
_ser ont
rit ure
r ées
ten tion
_loge ments
_relig ion
_repr end
_pres sion
onn é
_ann uelle
_qu o
te lle
_portu g
f ort
_contin ent
_s cience
_cri tiques
_commun aut
t ères
_b less
_lim it
_nouv el
_t ar
_neu f
_dé rou
_g agn
_mat éri
_décis ion
é tiques
_in cl
g ée
_puis que
_qu' on
_ =
_alle mande
_français es
_l' entre
c on
tis s
_re ti
_décl are
_vérit able
_con grès
_maj or
_culture l
_l' énergie
_comp orte
_mort s
_syn dic
_b ran
omé trie
_in tro
ti le
_d' ob
_n uclé
_royaume uni
_g raph
iv es
_aut ant
_t ours
_s ole
_s igne
_v idé
_conc ent
ori es
_ ul
_tradition n
_n os
_f u
_gr os
_phénom ène
_mil ieux
_org an
_pie d
_con texte
_europé en
_pouv ant
_jou eur
_résist ance
_constitu é
_déc ouverte
ter n
_b ud
_cr o
_bâti ments
_ri ches
_précip itations
_m ètres
te ments
_temp le
ul p
_esp aces
an ie
_cr ois
_propri été
_civ il
_di m
_sold ats
illi am
_roy ale
_j oseph
e aux
_h é
_dis cip
_l'esp ace
_r ien
_réalis ée
_ve ut
_éc ole
_ ordre
ti ens
_mes s
_défin ition
_l'e ff
c teurs
_con ver
_sc ulp
_cô tés
_pi èce
_ch ron
_effet s
_v éh
ag nes
at h
ou re
_cul te
_v oul
_d avi
yp te
_repr ises
_japon ais
_officielle ment
_in d
u les
is tr
_r usse
_sup port
f rique
ér ée
_popul ations
_éc riv
_anim aux
_mondi al
_philosoph ie
_aff aires
_d' esp
i ce
_ch ant
_véh ic
ê té
_st and
_économ ie
el à
és ie
_histor iques
_sp ati
_r are
_lut te
_ag ri
_l'é lection
_j uri
_comp ét
_dyn as
_doll ars
_ser v
c er
ri ques
tr al
_soi ent
mi ques
_w illiam
_s orte
ur r
_éc l
a ff
_malad ie
_l' aire
_quat ri
_vis ite
_mont ré
_quit te
_l'ac c
_n our
_sou ff
_public s
_c ra
_l'or ganisation
_sole il
_tot ale
t all
_c os
_actu ellement
_fr oi
_arri ve
_b us
le y
_dev ait
c é
_ancien nes
_réguli èrement
_objet s
_ph ase
_quatri ème
_supérie ure
_a jou
b lement
_gar de
_c ivi
ri ct
_kilom ètres
_s' y
f ant
di en
_re ine
_con vention
c tes
j or
_poli ce
_contraire ment
ag ue
_pro ches
_l'a ff
_bret agne
_v ar
_tou l
_permet tre
_pour s
_pours ui
_mes ures
_com té
_fut ur
_au des
alis é
_gén ér
_mau v
ony me
_fond ée
_moy ens
_ré uss
in aire
_rej oint
_l'ar t
_peti tes
_mém oire
_l'id ée
_professe ur
_cr oix
_ress our
ol as
_fab ric
i i
_qu in
_dist ance
_municip al
ur ant
_sim il
_alle magne
_der rière
_tour née
_phot os
_béné fi
_aéri ennes
v al
_im médi
_ly on
_parois se
qu ences
oph e
_p ouss
_projet s
_chris ti
_geor ges
_tempéra tures
_n u
_re d
_davi d
k i
_bas se
_c ab
_fle uve
_ti ent
_fron tière
l ande
o iles
_retr ouv
_coule urs
_bâti ment
_d' ass
_s am
_prop res
_t re
a x
_suiv antes
land ais
s es
_il lus
n és
tu elle
_agri cole
_br és
_loc aux
é ch
_québ ec
n is
_cel lu
_progressi vement
_gr ille
_complex e
_topony mie
_élev é
and es
_appar tient
_b ul
_compos ée
_mus ul
_d' imp
_quo ti
_fam illes
_guill aume
ur a
_consomm ation
_v ont
_f id
_import antes
_m ine
_spect ac
_symb ol
_ou ver
b on
ig e
_l’ év
_ch ute
_ar mée
_volont é
_b ra
_commun al
_s' in
_ex tra
_lang age
_dé li
_c ali
_l'e urope
_gra v
_des cription
_l'in see
è tes
térie ure
_b re
_mon ument
_a ction
g t
_l'ar rivée
tien nent
_désign er
_tr ouvent
_matérie l
for me
_al g
or ie
_app are
ul ation
_consid ère
_m ex
_cr ée
ma jor
_b ras
_in aug
_ph ysi
_a th
_scientif iques
_oc cupation
_seul s
_espagn ol
_in tég
_rap pr
_océ anique
t ée
_contr ô
_au d
ri che
ploit ation
_jou er
en ir
_économ iques
_l'an cienne
_char gé
ous se
_con tient
_jeun esse
_sud est
_appel és
olog ne
_sub s
j out
_réf orme
_bure au
_th om
l ée
_l'é g
_ger man
_l' assemblée
_l' utilisation
_log ic
_ar mes
_s enti
_v oc
_a ire
_résult at
_d' o
_contra t
_rec ue
_desc end
ab it
_surn om
_cour se
_fond ation
_rev anche
_ +
_d'en viron
_m os
_de mi
ie ur
_d'e urope
fi er
_c élé
. c
_prév oit
_g ui
_fa veur
_fr ères
_cl aude
b y
_audes sus
_conf i
o di
_é m
_n ’est
_par f
gu er
_d'au tre
_con ception
_les quels
tis me
_poss éd
_man que
_mar ine
_per form
_pass ant
av es
_ri che
_concep t
_sud ouest
form ation
_off re
_brés il
ol d
_loc al
_d' ad
_particip ation
_hum aine
ch és
_mo di
_ex cl
_re vient
r op
_dis po
_ital ie
_ap port
cu le
cesse ur
vi ronnement
n aires
_cul tiv
_distribu tion
p es
_ar riv
_fon de
_f ant
ç a
_n ations
_ri ve
_e au
_disc ours
_const at
_m êmes
_off ici
_no tion
_per man
_no te
_d' ag
_i v
_s oir
_prof ond
_mand at
_th er
_s ert
_v ig
_comp l
_sau f
ti ères
_mo teur
v oir
_secr étaire
_l'in dustrie
_suff is
qu és
_se ction
_ex écu
in i
_remp ort
n ov
v ie
_ré alise
_exp lique
_d'av oir
_conc l
_l ing
_enti èrement
_ter mine
_cit oy
_propri étés
_r ock
dépend ance
_ent our
_cour t
_urb anisme
_déc ret
_compt ait
_re mont
_vidé o
ér ant
_reç u
at es
_in ves
er nes
_ital ien
titu t
_s'ét end
_c id
_conc erne
_pe ine
_f ête
_chr ist
_j .c
_sc ol
_march and
_jus te
_hy dr
_ar ts
_éc ologique
_e ut
_représent ation
_fam ili
_tribun al
_unique ment
_somme t
_l'al lemagne
vi d
_m agn
_élect or
_dens es
_cons truire
_c re
ati fs
_mar tin
ar ts
_dé t
_am éli
u ves
ch ant
_r os
_méd iter
_remplac é
_compé tition
ab et
emp l
_num éro
ra mi
_élect rique
_py rami
_h i
_plu vi
_l ie
_règ les
_ouv ert
én agement
_b ass
_l'ass ociation
_nap ol
_ar g
_l ux
_déf aite
_min im
_ét ap
_dom aines
ric ulture
_réalis er
avant age
_él us
_envi ronnement
_ar ticle
t ation
ar que
_ca us
ri ers
éd ie
_méditer ran
r un
_rich ard
_conc ert
_l’ an
_différ ence
_influ ence
h a
_rur ale
_hab itu
_recher ches
_conse ill
ot es
di ction
m os
_diff usion
_rés eaux
li quer
ge t
ar m
_h ong
c k
_d'a ff
ul té
_ouv rage
_v o
_thom as
_form er
_d en
_la isse
_sau v
_colle ction
_aut oris
_artis tes
g ne
_nord ouest
_d û
_mété o
oy er
_jui fs
po ques
_é poques
_c és
_dé riv
_port ant
er se
_p en
_organis ation
_ins crit
_iss u
_d os
an o
_m it
_aug us
_siè cles
_deven ue
_geor ge
_minist ère
_l'ex istence
_collè ge
_d' ét
_nord est
_rej oin
_prof onde
_l'ac adémie
ô p
_l ic
_dev rait
che ment
_déc en
_pr ét
_i dé
d a
end u
_r aisons
lan tique
_dra pe
_cath éd
_égl ise
_par ents
_indus tr
_n ul
ten ue
_dém ont
î tre
_plate au
_accue ille
_d' app
_l'abb aye
cu pe
us si
_ar ch
é dition
_consé quence
_simp lement
y l
_l'au teur
_change ments
_g all
_dis s
_s l
_ressour ces
_b elle
_cons iste
_tra in
ult és
_évé nements
_l'ar chite
is é
_arm ées
ra ins
_dire ct
_eff ic
_civi le
_utilis ant
_inté gr
_comp arer
_oc casion
_constru ite
_ceux ci
_région al
_par vient
t rice
_bl oc
_mag az
_dist rict
_empl oi
_fais ait
h am
_distin gue
ab il
_g am
_pro duire
_pouv ait
_sa tell
_priv il
_co op
_par am
_mét al
_qu as
_jam es
_fond ament
alis ée
_capit aine
_l' œuvre
_m â
_f un
_l'év olution
_équ ival
_inférie ur
as c
_at ti
_mod èles
_bi ens
_détaill ée
_m oul
_cid ess
_acc us
_esp ace
_sem aines
_gr en
_fort es
anc er
_v ote
_i ci
_sovi étique
qu ité
_b u
_biblioth èque
_chans ons
_rec ense
_dynas tie
is er
_candid at
_dém ographie
_équip es
_c ér
_part age
_po si
_autor ités
p t
_tr ente
_urb anis
_classe ment
_poi ds
_j a
l am
_l' air
_napol éon
_d o
ven ir
on se
_inter commun
_st ock
_mar iti
_a ires
_appr oche
_accessi bles
_ins pi
_l'ab s
_personn el
_ar t
_nég oci
_cor ine
_europé ens
_m én
_b out
u er
_ch au
_ er
_fav oris
_rom ains
_l'ac tion
_dou ze
_can adi
_soci étés
_considér ée
_nic olas
_sub st
_nob les
_conc urr
_tomb e
i ère
o ins
_or igine
_fonction nement
_fond é
_bes oin
_enreg istr
ar a
o z
è dent
_c ime
_l'éc onomie
_ce ci
_début s
_t ente
_di z
_suc cessi
_co ver
_v ieux
_vas te
_pays bas
_car b
_gouver neur
_qu anti
_quanti té
_suiv ants
_coup le
_tra duit
f t
ci de
_é dition
_d' ins
_l'é ch
_l' ess
_dép ass
_déc or
_bern ard
om mes
_massi f
_actu el
_gu erres
_ren ouv
_sy mp
_l' enc
as tique
it ant
ch ar
aire ment
_qu' au
_li aison
_b il
g én
_n oire
c al
_deme ure
par avant
_r ares
ti mes
_ou est
_dé di
_nav ig
_n oy
_ra dic
_am is
_d’au tres
_c assin
uri ce
_remar qu
_l'un ité
_for ment
ti g
_h ame
_bl anche
ox y
_quar tiers
ér és
ypoth èse
crip tions
_un ité
_cy cle
_b ate
_par ten
oph ysique
_h oll
_indi que
_syn th
lic ations
_min utes
_j és
_p an
_p â
_meille ure
_viv ant
_re b
_marqu é
_commun iste
de france
_év o
_dé v
_fré quent
l ent
ap par
_d'at traction
_l'é té
ir ent
_cér ém
_fl or
_p ati
_id ées
_d'ar t
_respec tivement
_b ac
g o
_fran ch
_vill ages
_lib ération
_op ération
_m ig
_météo france
_feu illes
_év olution
_météor ologique
_souh ait
_é mis
_d’ occupation
m ond
_utilis ées
_nom bres
_féd ération
_supp lément
_pens ée
eur os
_p oiss
_fond s
_iss us
_pris onn
_normand ie
_ré di
_d'o ù
_v ent
_con dition
_c uis
oise aux
_provin ces
_ti ers
ist or
ou x
_l'é qu
_cathéd rale
as tr
h ors
_c ui
arch ie
_n' av
_p êche
_l or
_l'arr ondissement
_main tenant
_aud elà
ari o
_ex ception
_é limin
_ét abli
_cassin i
ten sion
_vari ations
_dev int
_emp ire
_sy s
ou te
_per du
_opéra tions
_chev al
_au paravant
ét aires
_célé b
_conc ours
_norm ale
_and ré
_commerci al
_n ée
_repr o
_r y
médi aire
use ment
_v on
_sain ts
_réalis ation
g ar
_fa ç
ens es
met tre
_ouv rages
_ob tenir
d d
_navi res
x es
_fra g
_v ente
_prin temps
ot t
û te
_fait s
_b y
_loc ales
_éch elles
_sign al
_ref use
_as si
_symb ole
er ge
_ab ou
_orig ines
_dis que
_s in
or g
_possi bilité
_g o
_ar ché
_soci aliste
_tour isme
_jard in
_r oche
_m onn
_bi ophysique
_form é
_pro cès
_cont act
g on
_pluvi ométrie
_arr êté
cep ti
_fl otte
_ île
ru p
_pl at
_égl ises
_al bert
_dép utés
_mer c
_développ er
_vis ion
_v ert
_l’ ég
_di ver
_ban que
l ieu
_spéci fique
_m ains
_cés ar
_l éon
_public ation
ér ité
_développ é
or tement
_médi év
_r iv
_chap it
_hér os
_pour su
_repr ise
_cl c
_pé tr
_lux e
_qu an
_app elle
_dép uté
_pr ai
_tr ône
_l’ état
_con j
re ment
_rest ent
_l’év olution
_ré ac
_ré action
pi erre
_un ités
_sé p
_écrit s
ct or
ra ient
_décl in
_stand ard
_es c
_rev ue
ap pr
_initi alement
t y
_lit tor
_rév ol
ang es
_maje ure
_gu it
ro vi
_fer rovi
_par ler
_major itaire
_ly cée
_intitul é
_enreg istre
_les quelles
og ènes
al d
_nature lles
_form ule
_mod ernes
_fle urs
_inté ress
_présid entielle
_l ille
_d'état major
tu el
erg é
_l'emp l
lu ent
_méth odes
ali ers
_r ot
_l'é tude
_pro duis
_conn aiss
_év olue
_af rique
_a ctions
_l' ign
_dém ar
_pa ci
ce au
g és
as h
_prés ents
_is ol
_priv ée
vi end
l a
_esp èce
_f us
_o tt
_t ôt
_ar b
ue ur
_t al
_trav aille
_l ien
u its
_fabric ation
_atte indre
rib ue
_de hors
tu e
è lement
_respons able
_s il
_sport s
_di am
lé ans
_r asse
_l'ins titut
_tend ance
itu de
_pl ante
enti té
_is ra
_l'ap par
r ons
_us age
_suc c
_réc omp
_l'inf luence
_ti t
_l’ occupation
i ze
_rejoin dre
_hist ori
_l'ad ministration
ois eau
_prai ries
_franc is
_lég ende
_b ron
_l' ang
_su g
_etc .
_an c
_établ issements
ut ation
_circons cription
_ré cup
ti ème
_mar se
_ple in
_ob tenu
_g ré
_match s
_mo des
_r ois
ras tru
_reven us
_ma urice
_l'entre prise
_excl us
_car l
_réc it
_club s
_présid ence
n y
_associ ation
p el
_pol y
_ orth
_m ille
tic les
_s' op
_th ème
_a ch
_mathém atiques
_tourn oi
ograph iques
_an aly
_en vis
_cant ons
_v ienne
éri es
_comb in
_caractér ise
_alli és
_am érique
fic ations
_soci ales
_ling uis
_l'é l
ag ée
_cam b
tisse ment
_or b
_sp ir
cl am
_cime tière
_resta uration
_accue illi
_r ig
_ q
_fil les
_sem aine
_communaut és
_esti me
b i
_volu me
_pein tre
_cin qui
qu ie
_port es
at t
_constitu ent
_offic iel
_médec ine
_lu c
_cul tures
ul te
_fa ci
_franc s
_établ ie
ende main
ri re
s er
ex p
lè ves
ge ois
f iques
til l
_lég èrement
_hom mage
ol i
_g aul
_s œur
_réalis ateur
_stu dio
_commande ment
_en tier
_magaz ine
_hum ain
_fl am
_affir me
_ple ine
_drape au
_déc oup
onn ée
_l'us age
_réf ug
_pris on
_ég yp
_reconn aissance
_é ditions
v in
_li és
_af ric
m êmes
_poss es
_ter rains
_conseill ers
_sus cepti
c ité
_fin it
_ju li
qu ées
_bud get
_ren é
_au teur
ili bre
_d’ in
_l in
_jusqu’ à
_occident ale
_conn us
le ct
en tin
_disponi ble
m it
j our
_é vent
_b aptis
_correspond ant
ri d
_p ér
_div in
_l'im age
_l une
_peup les
ôp ital
_ang leterre
_app li
_l endemain
_rec ouv
om es
ler ie
_l é
_lorsqu' il
d om
_h an
_ti r
_emp run
_v ite
_d' ann
_hé tér
_maxim um
_en ne
_personn alités
og ène
en e
a il
_ti s
al istes
_nom mée
ra t
_l’ or
_comp ose
_médi as
air ie
_l'ag riculture
_cinqui ème
w ay
end ue
_br un
_elle même
_pr atiques
telle c
oir s
_discip l
_in dé
_d'in térêt
lé gu
_rou tes
_mar c
_cr oy
di ci
_l o
_p av
_conn aître
_ob jectif
_class es
_doc uments
_év iter
_mar che
_n' était
_pein ture
ist an
is tique
_con ne
_sol ution
_ex trême
_tot alement
ec ture
_ver sions
_a che
ag ers
_dé l
_qu es
ra d
_enf ant
_clim atique
_diffic ultés
_aff ec
ne y
_lim ites
_n az
_d'ac c
_comp ortement
_fré qu
dr oit
_b all
_gé ographique
ô les
_ber lin
_cal end
_pl aine
_pouvoir s
f a
_m ons
_co ût
_pr ennent
_al tern
_règ le
_tra fic
_sé jour
_littéra ire
_l is
_correspond ent
_princip es
_dyn am
ou n
_ad j
_défini tivement
u els
_j ér
_religie use
m on
_nom me
_suc cession
_relie f
ur y
_généra ux
_poin te
a tement
in tes
_fab ri
_arr êt
_dé te
_entrepr ise
_exp ri
olog ue
_ju dici
b er
_prom o
_r uis
_d' euros
_dat ant
_stru ctures
alis és
_per te
_gr èce
_parc ours
_puis qu'
_hau tes
_influ enc
_clim atiques
_li é
_interne t
_sou lig
_ju me
_vi ce
_conf érence
_gu y
alog ue
b l
_che fs
_av anc
_soci aux
_inform ations
_d'in ter
_gén ération
_né er
_poursu it
_st ations
_qualifi é
_d'é v
_jour née
_sur ve
_fil i
_all ant
ti les
_inspi ré
_administra tive
_dé r
_vég ét
_sén at
_publi ques
_plan ète
_utilis er
_ch ante
_industrie lle
_b os
_préc ise
_pro c
_ins p
_utilis ent
_s at
as t
_y eux
_d ot
_oc cupe
_un ion
_ju les
_conse iller
_ren om
_d'ex p
_num érique
l ise
_déc ès
_dess erv
os es
_progra mmes
& gt
or es
_entraî ne
ul sion
_l' italie
_dipl om
_un i
_expéri ment
ici ens
_jac k
_étudi ants
_bourg ogne
s erv
_s' ag
_en droit
_cl o
_imp lant
_ os
_per p
_é lèves
_l'h um
_var ie
_log ique
_représent ent
_vic times
_n ar
_nuclé aire
_l'abs ence
it aine
_dérou le
_h or
_in tellec
_vict oires
ol ie
ph e
_transf ert
_résid ence
_acc ès
_conv ain
_ry th
_rom ans
_comb ats
_grec s
_fait e
u elles
_s' imp
_ex ac
_hau ts
_au quel
_s éries
_é chec
_co h
tis te
_l'ar ticle
c it
ch ent
_trav erse
r én
_publi ée
_rép and
_hum ains
_exemp les
_franc oph
_ma x
_grec que
_as tr
ult an
_collab oration
_représent ants
_équipe ments
_carac tères
u y
_chac une
_bel ge
_c ens
_sou ter
_r av
_ble u
_st atis
_histori ens
_ét ym
_cellu les
tiv ités
_ass ist
_rés erve
k s
_fai bles
_mauv ais
_bou dd
_res pect
ét ée
_c é
_fond ateur
_stat ue
_g ens
_peu pl
_qu oi
ti r
_br ux
_li ées
_de viennent
m és
_mach ine
_li ée
_étrang ers
_ques tions
_l'en vironnement
_an tique
c s
_ré d
_département ale
_olymp iques
_signi fic
g in
_ruis se
éri ques
_ven ant
_regroup ant
tr ém
_const antin
_l' off
_multip les
_cent res
_param ètres
_donn ée
_cir cu
_ab ond
_associ é
_second aires
_asse mbl
_ord res
_ch ose
_s m
_manifest ations
_in h
_l’ ac
ci d
_men ée
_pe int
os é
k er
_reven u
_sign é
l ou
_faci lement
atta que
_li ens
_lab or
at oires
bre t
_dépar tements
_v esti
_consé quences
_organis é
_du re
_por té
_retra ite
_le v
œ urs
_souver ain
_ it
_milli ers
u ellement
_angl aise
_cathol iques
_ara bles
_calend rier
li ers
_jou é
iss ue
_l un
_tra ite
abl issement
_évolu é
_c ub
_h it
_v aisse
_c ord
er ies
_trava iller
_hu mi
_k ar
che ts
ag on
_ar ticles
_municip alité
c y
_donn ant
_pl ans
_chef lieu
tin g
_h ug
_pl ant
_bron ze
_s' élè
_en vers
ure r
_méc anique
ou d
_c ités
_l'ac tivité
_ren aissance
urb anisme
_dess er
_pr ises
_d'é tu
_recense ment
pr és
_car t
_he ure
a que
_v ien
_r og
o od
_al é
_m our
_ra di
_p ologne
_cont ro
ul er
_sug g
_télé vis
ar g
d ie
_pro té
_ oiseaux
_iden tifi
_pol lu
ori z
_re lev
_mon as
_con quête
op e
_catég orie
al ais
_péri odes
_toul ouse
i ch
é an
_d' oc
_présent é
_am én
ond es
_ord in
_m ay
en di
_institu tions
_& amp
_al ph
_europé ennes
_ad vers
_origin aire
_re pos
_s ais
olog ies
fi ant
_cab ine
_col oni
_m orte
_g ol
_déb at
le c
_command ant
_l' entrée
_sujet s
fic es
_h on
_champ s
_vict or
_immédi atement
_s ouv
_protég er
_situ és
_bénéfi ci
u f
i bles
_sup pos
_d avantage
_atta que
_tourn age
om bre
_im age
_cons cience
_mic r
_mat ern
_ch ale
_utilis ation
_ab rite
_maî tres
ô mes
_mon te
jec tifs
_c éré
_intro duit
_n' ex
tr oit
_cali for
_b aisse
éra le
ili er
_im ag
ti m
alis er
_comport ent
_marse ille
_loc alité
_mar cel
_rapp el
_port er
li ge
_découv re
_fr uits
_ac teurs
_l'a éroport
_inter d
_doc tr
_chois i
ense mble
_al ain
_exclus i
_urbanis ées
_constitu ée
_décl en
_conf ond
_reg ard
_port ent
_album s
_mé tro
_a mp
_n' en
_b é
ès es
_comp ter
_élev ée
_commenc é
_caractéris tique
_rég iment
_t ub
_propri étaire
_él ab
_pré p
titu tion
ci ens
_l'an ti
si ble
_jean ne
_â ges
_vis ant
_rép onse
_médec in
_by z
_mas cul
_qu' elles
_augment ation
_centre ville
_r ose
_fin ance
ut er
ange re
_d angere
_viv re
_ab b
_circul ation
_d'ann ées
_s û
ul aires
_ré duire
_bes oins
_reconn u
_av ent
_aur a
_ét oiles
_p ense
_ab ord
oris ée
_l'h ôtel
_l'ense ignement
_im ages
_vic time
_supp ri
_appar aissent
_b orde
_but s
_me illeurs
_blanc s
_mod ern
_l’ég lise
_cont est
_retr ouver
_f oss
_maj eur
vent aire
_le cture
_bran che
ou ard
_appar tenant
tral ie
_l os
k a
_chapit re
_ac cident
_ven ir
_dépl ac
_travers ée
_télé ph
f er
_dispar u
_ant oine
_bret on
r ois
_ré el
_prim aire
t ur
_concent ration
ric k
_sc and
_fle ur
th e
_in de
_sou mis
ans ion
_hétér ogènes
onn er
_autre fois
_cô tes
_associ ations
_co ord
_présent ent
_dans e
î t
u il
_scén ario
_on ze
l ation
_k e
ing ton
_m ix
_l' i
ric ité
is ée
_chiff re
_d ieux
_c rit
_rest er
_d'ar gent
tif ication
_ouver te
_b rig
_t ran
_dim ension
_nor v
_mich a
_a jout
in age
di ens
_artis tique
_loc alisation
_législ atives
_ten u
bret agne
_ru p
_ré t
_imp li
id er
m ise
_r ê
_chiff res
_repr is
_mar éch
_retra it
_inc ar
or mes
l y
_tra duction
ow n
_quin ze
_nive aux
_s is
_lég iti
_d'é c
_t ol
_situ ées
_mis sions
ite urs
_attest é
d on
_ne tte
_dé chets
_parall èlement
_matéri aux
_dispar ition
_pre uve
_réf lex
_car din
_compos és
_ense ign
_sc ru
_scru tin
_l’ emp
_fac teurs
rén ées
_cont enant
_brux elles
_sys té
ve t
ay ant
_di oc
_fac il
_ense ignement
_quit ter
_cons erve
_vain que
_aur aient
_des truction
_jés us
ar iste
_ser aient
ag ent
_cy cl
_b aiss
_alex andre
_inc onn
h er
_ erre
_b ay
_réun ion
_bas es
_r al
_l our
mb ourg
m ins
_ara be
_m ent
_qu' a
_prov oque
_rend u
_é difi
_sé v
_urb ain
_ré duit
_aut onom
_an alyse
aul t
mar ne
_chré tiens
_ép re
_esp agne
_v én
_m airie
di enne
m ans
_s ait
oris ation
_po ète
_ang el
ograph e
_pol on
im ation
_sy l
_m ène
_t ox
_compr endre
_indé pendant
_sal les
ai g
éra ux
_l'es prit
_découv ert
_v ous
_l' issue
_pers pec
_p ôle
_po se
al lé
_min es
_b ill
_dom icile
_main tenir
_in ond
_v aut
_c ous
re ction
u me
a ill
èg re
ab b
_culture lle
_cap able
_i b
_tra ces
_olymp ique
_rég lement
_ass assin
_l'in dépendance
_sc ènes
_cer cle
p in
_dirige ants
_domin ation
_et /
_inf rastru
_et/ ou
o sitions
pec ts
_trans ition
_mariti me
_w al
_l' ent
um é
b r
_p ert
_partis ans
_collec tif
ien nes
_g ab
_prop osition
_m ang
n els
_in tér
_pat ron
_b oul
_étrang ères
_v éri
_c ia
_b ot
_l'exp ression
_port ée
_cidess ous
_al titude
_dé légu
_a te
c an
_re dé
_suiv re
_v ot
ét ant
_dan iel
_épis odes
_esti m
ê ter
f re
_c iel
_font aine
_c iter
_con qu
_dé mission
_spir itu
_v ul
_rév él
_s'élè ve
_catég ories
_ch ance
ten us
_organ ise
_pro je
_ital ienne
_micha el
al u
_inter dit
_h am
_ch im
_br ut
le ur
m ages
_ré ce
_réce mment
_op position
_priv é
_tent ative
_aéri enne
_complè tement
_du e
_mass ac
_di ale
_not er
_bar b
_fra pp
_t on
ri ères
_sec teurs
_expl o
_instru ments
_autom ob
_mél ange
an i
_iden tique
_grande bretagne
_p ure
_complè te
_tar di
ari at
ce aux
_trou bles
_ja une
_journ aliste
’ hui
an a
_pos t
_cérém onie
_nation ales
_inter r
_donn ent
_catég orisée
_cent aines
_accep te
_noir s
_rép ert
_form at
_h éri
_monn aie
_compr enant
is on
_év oque
_religie uses
_m ou
_servi r
_com édie
_mex ique
_d’ or
l s
f ran
d y
_conserv ation
_défin it
_tour ne
_men ace
_parall èle
_montré al
_de viend
_ren v
_mol écu
_gra tu
_m urs
_féd éral
_cat astr
_par ad
_ferrovi aire
_dér oul
_prév u
_lanc é
_l'ap pr
_cons ul
t ar
_transform ation
_r ues
_bour geois
_présent ées
_g ér
_n aît
_l um
ci des
_éc rite
_tr és
ali ens
_h ôtel
_res se
_l'anti quité
ét er
_chré tien
_mati n
_voit ure
_précis ément
_al ler
l t
a ci
_man che
_conten u
_oblig atoire
_men ac
_prol ong
qu oi
_résid ences
_rév èle
ac k
_s' exp
_nécess aires
_import ance
_municip ales
_spéci fiques
_ren de
_sol aire
_maî tr
_particip er
ain issement
_l'h istor
_e m
rim és
_présent er
_véhic ules
_mont rent
_second aire
_fr om
_col onie
_conc erts
_milli ards
_l'aut orité
_col omb
_sav oie
_ruisse au
_tra ins
_aujourd ’hui
_souv enir
_ac quis
és i
_g ir
_produ cteur
or p
m y
_én erg
_commerci ales
_s n
_siè ges
_détermin er
_v erre
am b
di ce
_. .
è ques
_in ten
_béné ficie
_coop ération
_destin é
un es
_augment e
_ant érie
_tradition nelle
_ac tifs
_orient ale
_re lève
_d'al titude
_conf éd
_p c
_vien nent
_b erg
s é
_man us
g ène
_ch oses
_popul aires
_cour ants
_impéri ale
_éch ange
_consac ré
_en tière
_s aisons
onc er
ti es
_fun éra
_ch ang
_rapport s
_avi ons
_stratég ie
_pour quoi
_réuss it
_cherche urs
ar r
_app lication
que mment
_privil ég
_compé ti
_l' angleterre
_représent é
_in térêt
at rice
_d' op
_ch aud
_vill a
_met tant
tra tion
_ac tes
v a
pi ration
_m el
_atte ign
_suc céd
co ol
è vre
_dom es
_b ob
ô ts
_dispo si
_chré tienne
te au
_pl aces
om mand
_réc ol
ven tions
_d' angleterre
_dimin ution
_fourn ir
_promo tion
_d'h abit
lie ue
_met tent
_mal adi
_ban lieue
_maladi es
_candid ats
_l'é mission
_ar tific
az z
rup tion
_suff rages
ç ons
_con duite
_hen ry
er ine
_ti b
_l'é ducation
_v endre
_maréch al
tif ier
_origin ale
_plac é
_we b
_d' oiseau
_sa tis
_suiv ent
_iss ue
_satis f
_s' é
_re pose
_suc cesseur
ap h
_fron tières
k in
_ne ut
te in
_b or
_my s
_internation ales
_d am
_propri étaires
our t
_rog er
ig u
_s core
_pl ais
ch estre
_laiss er
lou is
ique ment
utilis er
_révol te
_p omp
_compét ences
_direc te
_juri dique
_l'aff aire
ter r
_cri ti
_fré quence
_pert urb
_ré ussi
_dirig é
_borde aux
en sions
_souh aite
mos phère
_h iver
_dés ir
_d’ ét
_fré quemment
_ré é
_re jet
_étap e
_cour te
_mont agnes
_s'ins tall
ag o
_d ig
_quar t
_inst allé
ai es
_p age
oc ie
_d au
_lim ité
_br û
_cal c
_particuli ère
_m éri
_es cl
_administra tif
_install ations
_as pects
_mo indre
_déb ute
_indivi dus
_mar oc
_fau te
_milli on
_navi re
_proven ant
éri ence
_celles ci
_b aie
_camp agnes
_sec ours
_f oi
_fré d
e ct
t alle
_mil it
u ff
_simil aire
ag nies
_comp agnies
_p in
_précéd ent
_ou vre
_déclar ation
_procéd é
ut enant
_cap ital
_représent ations
_appr éci
_terr estre
_rec ommand
est res
_h ui
ic ations
_desserv ie
_per ç
_in gén
_cou l
od ox
_fix e
_l'ex ception
_prisonn iers
_pi erres
th ur
_german ique
_l'in verse
_mar ais
_témoig n
_conn ues
_vers ailles
_colon ies
_gen res
ut ée
_épis ode
ran ger
_littor al
am in
_ad h
_él oig
_eff ort
_d or
_repr endre
_th èmes
_complex es
de mment
_simp les
l or
_emp ê
_ca de
_manus crit
_trouv é
g a
_l’h istoire
_l'in v
_arch ives
ensi ve
_califor nie
_m iss
_rem onte
_tu é
_détru it
_inférie ure
ra tions
_ex ter
_c ouverture
_l’ a
_g agne
ér ieurs
_surve ill
_expéri ence
_l'a frique
_sou tient
_a chev
_froi d
end ie
_puis se
_méd aille
_favor able
_région ale
_rej e
_citoy ens
_étym ologie
_g as
_comp lément
_a î
_ré duction
_v erts
cu m
_rare ment
_révolution naire
_l'éc riture
_pil ote
_classi ques
_f c
is té
_pyrami de
_boudd h
_la it
or ce
_noy au
_fra is
ig h
_industr iel
_th èse
_su éd
è ler
_comm en
_l'op position
_chev aux
écu tion
_su ède
_portug al
_conç u
_vig ueur
_v ac
_n’ a
_voi ent
_établ issement
_seine et
_poss èdent
re f
cesse urs
ra c
tel lig
_sou p
_chev alier
_spati ale
_profonde ur
_po sitions
_déci dé
_pr enant
_cons écu
_d'h onneur
_b a
di er
g or
_seigneur ie
_py rénées
_music ale
_commenc ent
_doc teur
_t â
_sépar ation
ol a
_p on
_péri ph
_ tin
_ott om
_vis ible
_russ es
_musul mans
_rup ture
_cons erver
_cou che
_fe me
_remplac er
_dém ons
_di man
_systé matique
man ie
_du ché
_é vid
ob le
_conserv é
_célè bres
_fourn it
_vari able
_ob jectifs
_mus iciens
_carb one
_précéd ente
_appar ition
_condam né
d ame
_infrastru ctures
_notre dame
_long ues
_s'en g
_signi fiant
_syndic at
og e
prés id
_gen ève
_s anc
en n
_diam ètre
_ …
_m ises
_organis ée
_rac onte
_é rig
_pro grès
_seu les
_lance ment
_laiss ant
_com tes
_s’ est
_pau vre
urs s
_fréd éric
_l’ au
_sal ari
que t
_env ah
_class é
_sembl ent
_phénom ènes
or l
_l'in de
_id ée
_pr osp
_rel ative
tit és
_p èler
_car ol
_const ante
_n antes
_compos iteur
_néer landais
_bil an
_représent er
_her b
_appr end
_préf ecture
_baiss er
_w all
_l’ en
_env oie
ri en
_ac te
_r ais
_hi ér
_fin al
l ais
_chale ur
qui ert
_l'esp agne
riv ain
_tot alité
ra se
_concurr ence
ct ur
i tions
_p éd
_w est
_paci fique
_prol onge
iss ait
_musul man
_ex tension
_accompagn é
_w h
_professionn el
_bl an
_différ ente
_adop té
_renouv el
_sch ém
ar n
_de gré
_n'av ait
_l' ouverture
_lab el
_offici ers
_b ert
_l'appar ition
_m u
d '
_cro ître
_dém ographique
_instru ment
_nobles se
_a ide
_fa me
op le
_ac tive
ad ré
_linguis tique
_r ug
_peupl ée
_l'eff et
it ent
_républic ain
_spectac le
_indi c
_pr énom
_t ch
_class ée
_s' emp
_pro vient
_considér és
os l
_seigne urs
_pe au
_par k
_associ ée
_n orme
ér on
_sub it
_dess ous
_cons ult
_vi de
_démocra tique
_professionn els
ur ait
_att endre
m at
_chaî nes
fi é
_f en
j ac
_ °
_l'a vi
ass ade
_logic iel
_limit r
du its
_techn ologie
_mati ères
_déb it
_pays age
_ar rière
_pos tes
il é
_vra i
er ic
_bas é
_défin ie
_l'ag glomération
_am en
_ar bres
an ité
til lerie
_espagn ole
_déf end
_ch ic
ouv rage
_constru its
_chois it
_réf orm
_dou b
_l'aut om
_app lications
_sig nes
d o
_su pr
térie ures
_mach ines
_cr ist
c ol
_fran k
_administra tives
_jard ins
_décen nies
_che mins
_par aît
_d’ être
_moul in
_la urent
_b andes
_dessin ée
_minist res
_form ant
_industrie lles
ar te
_ag glomération
_insp ir
_ar c
_l'oc éan
_m ill
_viol ence
en ue
_rappr oche
_parti cul
_dirig ée
_confl its
_contempor aine
_bas ée
i b
_mo teurs
ouv re
_a qu
_vice présid
b a
_doctr ine
_assure r
u é
_disponi bles
_espagnol s
_p el
_portug ais
_prop ag
_not es
_nécess ité
_l’é poque
_succ ède
_perspec tive
_fig ures
_philosoph e
_c éd
onn ées
_l’ar mée
_nation aux
_judici aire
iss es
_j et
_mob il
_p ertes
_ép ous
_v entes
_mor ph
is p
_ent rée
enti ne
_pro vis
ch ées
s a
_r ad
_ar ist
_l ion
_conf ront
_extrême ment
_électr onique
_ten sion
_can on
ag és
_améric aines
os ité
_cr u
_l iné
_destin ée
_d'or léans
_cl er
_propos é
ign on
_envoy é
_ten ir
_possi bles
_méditerran é
_indus t
_ch oc
_ces se
_h osp
ale m
_d' y
_ré nov
_lie utenant
est ation
_orth odox
_augus te
_chron ique
_l'éch elle
_cath erine
_w ash
_wash ington
_lor raine
_l ourd
_l’ ensemble
_commerci ale
_mont ée
_outil s
_pot entiel
_ch ass
_l’ éc
_j azz
_bi odi
_diffic ulté
_d’ é
_mon archie
_gér ard
in ion
_déclar é
_cabine t
_pays ages
_bomb arde
_t un
_prépar ation
_particu les
_employ é
_distin gu
_vég étation
_ac qu
_traditionn ellement
_k h
_pe ter
_faç ade
_c f
_rug by
_fisc alité
_y ou
_sur vi
_al pes
_cia près
_r ôles
_l'év êque
_mil an
s is
_sec ret
ali mentation
_accord s
_respons ables
_in vent
_cor ée
_ant h
_qu’ elle
olog ues
_lib res
ra ction
_tra ditions
_collec te
_remp orté
_personn alité
_rac ine
_g oth
_deviend ra
_b ét
_caractéris ant
ni er
_fl ux
_sorti r
_d'esp agne
_progra mm
_déf endre
_reconn ue
_tri ang
lev age
_pén ins
_st ar
_exist ent
_reli ant
_d'ac tivité
_d'aff aires
_eux mêmes
_g oût
ém is
_myth ologie
or om
_territori ale
è nement
_internation aux
_ ign
re au
_vari été
_chan teur
x ion
éra tions
é rance
_gén étique
_la tine
_département ales
_respons abilité
_dép os
_r ace
_inter médiaire
_l'ar chi
_fin ances
in ée
_év êque
_hum aines
_f êtes
ac ts
_dau ph
_pap ier
_bi ais
_pri mi
éri r
_ratta chée
_enf ance
_c '
an iques
vers ité
_biodi versité
_t om
_g ri
_développ ée
_ne ige
_municip ale
_lég end
_l’ on
_gé ologie
_s' acc
_pays ans
_parf aite
_prot oc
_compl étée
_comp let
_rec ours
al a
mar ie
ense ignement
e y
ri ces
_st ras
_trouv ait
_bas il
_loge ment
_démocra tie
_d' énergie
_c ur
he ure
n ées
_record s
_tr oupe
_chi mique
_quoti dien
_désign é
œ il
_rou ges
_s’ agit
_st ric
_distin ction
_physi ques
_diffus ée
ag og
_év ê
_fémin in
ér y
ill ant
_effic ace
_r ation
_satell ite
_pl ur
_t unis
_éch anges
_rh ône
as te
_c ass
_pouv aient
_exp li
_s' eff
_japon aise
_gr oss
_en d
_sal on
_mar ins
_découv ertes
_fran co
_distin guer
_b ur
_m am
_christi anisme
_be aux
_reven ir
d its
_vesti ges
_l an
cri re
_l'en fant
_l'archite cture
_char te
_aff i
_l'ex térieur
_& lt
_sé cher
_convain c
_cin qu
_f ol
_c u
_k ing
qu in
_d’ét ablir
_ra ch
_pro clam
_paris ien
a w
_h oriz
n elles
_posses sion
_rép utation
_ten ue
_inform atique
_financi ère
_pénins ule
_ac tif
_cou ches
_discipl ine
_théor ème
lect ricité
trém ité
_enc our
_christi an
_diman che
_l'histor ien
_gaul ois
_émis sions
mi le
tr é
_rapp elle
_lég ion
_h ou
_collab or
_gra mm
_pi ano
_n'ex iste
ill age
_laiss é
_r at
fant erie
ol ith
_minim um
_f ie
_défin ir
_s'ins talle
abet h
ant h
_produ ctions
_hame au
_rece voir
v ant
_d ie
emp le
qui de
_li quide
_univers itaire
_connaiss ances
m un
_ph on
_poiss ons
_po ésie
_effectu e
ô mage
_ch ômage
_constru ctions
_appr o
cul aire
_ven ise
_rh in
re ts
ar re
_véhic ule
_c' était
_réfug i
_d' as
_in tr
_h os
_fort er
_alli ance
i fication
_di ction
_fou illes
ci ce
_emp ereur
_l' «
_occup é
_music al
_déc éd
_com é
_vari étés
ole t
_métrop ol
_am oure
_suffis amment
_d anger
_é me
_organis ations
_conf orm
_én ergie
_majoritaire ment
_d' im
_parti ellement
_d'étu des
ra k
_d'imp ort
érit age
_référ ences
_appare ils
us alem
_jér usalem
_nor mes
_sou tenu
b us
_m osc
_no ël
_mosc ou
_stras bourg
_ca uses
_r entre
_circu it
_particuli ers
_découp age
_ray mond
_provis oire
g ées
_lég er
_car ré
_ ère
_chin oise
_p iste
cel l
_dé ri
_cardin al
_différ ences
_ara bes
_préf et
_gu er
_réf ormes
_l'op ération
ell ation
ont re
_éc rire
_m ér
_v él
_stu di
ir s
_vi erge
_particip é
_l'ac cès
_jac ob
_rempl ace
_n am
_ch ir
_rés olution
_as c
_cond uis
_vainque ur
_conseil s
_ouv riers
ff e
_d' ale
_professionn elle
_crit ères
_étu die
_intér êts
_ess ais
_journ aux
_v érité
_t oit
ot y
li ance
_v ec
_viv ent
_l'enc adré
man n
à vis
_vis àvis
_dép asse
_recons tru
_m ens
_h all
_dioc èse
_co ali
_bou lev
_culture lles
_maje urs
_méditerran ée
i o
ter ie
at ures
_rend ent
_présent ation
_l ign
_w il
_int ègre
_correspond ance
_suiv ie
_l’ am
_bon ap
_d'aut ant
d en
_d' empl
_synth èse
_gau lle
_thé ories
_j on
_ac teur
_t ac
_lanc er
_angel es
_d v
_éd ouard
_lic ence
ow s
ch a
is ant
_pr os
mb les
_m ir
_limit ée
_parlement aire
_l’ esp
_sur v
_ om
_trans mission
i cien
_pr it
_ann oncé
_mor ale
ne t
_l'é dition
_retour ne
_d'e ff
_luxe mbourg
_vois ins
_impos sible
_dur able
am a
_surf aces
_saint p
_manif este
_divers ité
_s' éc
_t o
am éric
ul é
_pot able
_ca f
_it aliens
_gam me
_con cile
_form ations
_déf ait
est er
_négoci ations
_e c
ill é
_temp or
_cor p
_f lu
_ent er
ol f
ent ôt
_envi rons
_prés entes
_bi entôt
ue il
_d'ob tenir
_pos tér
_table aux
_consé quent
_d'ag glomération
_appr ouv
_gagn er
_ciném at
_pour raient
_dim ensions
_ryth me
lu ant
nie ff
_z nieff
_as ie
en tiss
_s pec
_dess ins
_s'in té
orient ation
_républic ains
_élect riques
_l ente
_orb ite
h ou
_différ ent
j on
_l’ ins
_cl é
_pat rick
_monas tère
_l'archite cte
b onne
_gra ve
_ven us
_v ap
_s un
ic k
_pens er
_dépl ace
_remarqu able
ch t
tr uis
_civil isation
_mont rer
_as pect
_sovi étiques
_sou tenir
_deven ant
_l'ex ploitation
_précis ion
ti cul
_hosp it
_ret ard
_rapp orte
_tradition nel
_e ur
_réc its
_loire t
_l' u
_p un
_diz aines
_l'an alyse
_l'acc ord
_gol fe
_nour riture
_l'ex position
ci ation
ac te
_s'ét abl
_renom mée
quis ition
reg istre
_nat ur
_exclusi vement
_d'a frique
_contro vers
_oc cit
_cl air
_constantin ople
_rot ation
_labor atoire
_cor re
_a éroport
_myth e
_ta x
_f asc
_atta ques
_ajou te
_voyage urs
ub les
_sol ide
_re port
_marqu is
_is lam
_v ise
res sions
_éch elle
_ar rivée
_exemp l
_march és
_l'in t
_f ar
_l’ eau
_bou le
_s'ét ait
_l'ét ranger
_pétr ole
_ver tic
_é di
w ard
_compar aison
_ex ig
_employ és
k et
_ré elle
_p ales
_pr êt
_reconn aît
_b ec
_al ent
_cui vre
_br est
t o
_co û
_pie ds
en tion
_confi ance
_gl ace
_jui ve
_arr ond
ad er
_l'éc rivain
iti ative
_mess age
_polon ais
on iques
_vall ées
_eng agé
oris tique
_vol s
_cuis ine
_divis é
_destin ation
_jean pierre
_ch anger
_pass agers
_diz aine
tis tes
au mes
_nécess ite
_fac teur
_mo du
_autonom e
m ation
_l'ob jectif
re urs
_supplément aires
an iste
_fr uit
_allemand es
_sanc tu
_ve ille
_déb arque
_prov ence
_men er
_du quel
_six ième
_scol aire
_â gé
n a
_recons truction
_compét ence
_tri om
_consac re
_logic iels
_coali tion
_institu tion
_d' italie
_mex ic
ol s
_un ies
_s è
_l'ét ablissement
_exp édition
_studi os
_cinqu ante
_comm iss
_p ur
_par ent
_constitu er
_sm ith
_tre ize
_po ème
_port s
én ie
_dynam ique
_trav ailleurs
_mo ines
b aptis
_puiss ances
_rec ens
baptis te
_chic ago
_rasse mb
m ant
_associ és
e ction
_mar in
_po èmes
ch y
_repro duction
_seineet marne
_aut orité
_sou d
_r ent
_mar x
po sitions
_su ici
_tra its
_b ab
_réd action
_collec tivités
ie ment
_c le
_dispo sitions
_univers ités
_bat tu
_rep ouss
_répond re
_confir me
tisse ments
_programm ation
_tra m
é mique
_s oix
ér os
_car di
_origin al
_p anne
_indépend ante
_appel ées
_li re
_cap ac
an es
_f all
_b anc
_l'h ôpital
_perform ances
_ar gu
_tr oph
ati e
_puiss ant
ô te
k y
fre d
_cl in
_tra ités
ér ences
_l'ob serv
_attribu é
_ar thur
_chi miques
_évé nement
_rem ise
_établ it
_profond ément
_adap té
_bate au
_h éb
_part out
_dom mages
s ace
_décen nie
_présent ant
_stratég ique
_ét oile
_l’ ob
_nette ment
_cl airement
_l' ère
urg ie
_v ins
_s oph
_rempl acement
_commun istes
avi er
_l’an née
b il
_l'in formation
_ass urée
_prin cesse
_hydr ographie
_réalis és
_bo î
_champion s
_dé esse
_jou ent
_pla que
u tions
_pau vres
_bate aux
u lier
p ère
_gra ves
_l'h ypothèse
_sim on
_long s
_v ague
av ie
_prin ces
_autom atique
oc cup
_considéra blement
_hy d
_ir ré
_st al
_d'é p
_particip ent
_v ou
_riches se
_s able
_s ab
_administra tifs
_z e
_tri p
onn és
ur és
_f ur
_épre uves
_gall orom
_m és
_voit ures
_déb ar
_capac ités
_souver aine
_ma ill
_ag ents
_re mis
or oute
_fu ture
_l’é cole
és ion
olith ique
_l'ang lais
_app orte
_s'app u
_for es
_met al
_éle ction
_d'habit ants
_m ê
_ancienne ment
_réun it
_schém a
b erg
_r och
ist ance
_vers ant
_techn ologies
_gal ax
_quar ante
_char ges
_l'am our
_byz antin
_inaug uré
agn os
_di agnos
p er
_rec ru
_l' ai
_ro ches
fi ée
_main tien
_organis mes
_réc ente
_bul le
_vari antes
or ée
_d' is
_rac ines
_prét end
_comm ém
_modi fications
d ité
_b ol
_étrang ère
_r ub
_p ages
_d'ex ploitation
as es
a f
ut s
_médec ins
res sionn
_intitul ée
_pol yn
lég ation
i z
_car n
ou dre
_archite ctur
age ments
té ri
_e ug
_port rait
_que lle
_décis ions
re lle
_cont ribue
lic ité
_aband onné
_d' ent
_sécher esse
_rur al
_finance ment
ne au
_symbol ique
_maxim ale
_sign ature
o dique
_mari a
_expéri ences
_d’ h
tég ration
g ra
_rég i
_parc our
_d un
_coup s
dec alais
guer ite
_avent ures
_col onne
_mont ant
_contempor ains
ig ration
_dépl acement
_vaisse au
_bi ologique
_l'op éra
i ères
_plu ie
_satell ites
ivi er
_mac éd
_b alle
_ch œur
_mét aph
_a si
_sac ri
_réserv es
ul tes
_mix te
l as
_popul arité
_recue il
_diffic iles
_anim al
_pat h
f ères
_h al
_sim ultan
_hong rie
_archite cture
_ar n
_rencont res
_supr ême
_at lantique
_réguli ère
_pay er
_retr ouvent
_d'é ch
_cli ent
_ré uni
_aut rich
_lib ert
entiss age
_l'ac tuelle
ten ance
_j un
_j osé
_fl andre
_demi fin
_l'h onneur
_vie ille
_l'ag ence
_considéra ble
_vois ine
ér in
_s' a
_l’un ivers
_pas sion
_topony me
ét aient
y cl
_redé coup
_redécoup age
_feu ille
_s ki
ér ées
_char bon
_adap tation
_senti ment
_effort s
_qu’ ils
_fin i
_pré h
_b ox
_l' isl
_ense igne
_h ypothèse
ab e
_quali fie
_cl ar
_d’ am
_perform ance
ori a
_dis ques
_élec teurs
_ph rase
_la ï
_mention né
_d re
_automob ile
_gra s
_l'a xe
_coll ine
_destin és
_n' ayant
_volu mes
_juli en
_s'ins p
_consid èrent
al erie
_d' utiliser
_sol id
_cav alerie
_gal erie
_suscepti bles
_l'hum anité
oph es
_abs or
_s'op pos
_tra it
_min or
_habit at
_disc us
f r
_surveill ance
_couv re
u ge
man uel
_d'in fanterie
_l'exp érience
_appar aître
_r ol
_r itu
_vi ande
_inter vient
le ver
_fer a
ul ent
_contra int
_vir us
_pl aines
éra ble
_ osc
_jus que
_r assembl
_mag as
_saint je
_exp lic
_é lève
_entre r
_disposi tif
_l'ess entiel
_mét aux
_conféd ération
_gl aci
_découv rir
_pr usse
_per dre
_mauv aise
_réflex ion
_trop ic
di vi
_personn elle
_w ar
_quat or
_déf aut
_bonap arte
_l' ouvrage
_trib us
le tte
_pr être
_c ents
_la g
_n au
_colon el
e k
ve u
_tour istique
_basil ique
_mar guerite
_inond ations
_territori ales
_ex position
_  
am en
_ex éc
_éc arts
_simp li
_d'ac tion
_évid ence
ra ux
_dipl ôme
_sing le
_tou che
_comp il
_vend u
_colle ctions
b o
_tourn ant
mar k
_pont s
_j.c .
_d ane
_dane mark
_d' âge
ét rique
_nom ination
_sol utions
cid ents
lè vement
anis ation
de ux
_suc re
_boulev ard
_s' ad
_he ct
si er
_en ce
_dé cident
in o
_comb us
ise mbl
_tin tin
_d ame
_ex c
_hit ler
_vap eur
_d'au g
_puisqu' il
_d'ale x
ocra te
_ab rit
_f aux
_maîtr ise
_prob able
_sau ve
_x ii
_privilég i
_col onnes
_cl ergé
_cit y
_d’ ex
_individu elles
_prog ress
_sous mar
_commer ces
_sus p
_dép it
_si cile
mi r
_d'am érique
_sy rie
_enne mis
_déb ats
_ti re
_d'h iver
_occup ée
_sac ré
alis ées
_statis tiques
_g us
_étap es
_suéd ois
_k m
_juge ment
ur se
_rej oig
_mém oires
g érie
_remar que
_catastr ophe
ci ers
mi cité
_sis micité
ist ent
_univers elle
_l'esp èce
_renfor cer
_cou tu
_compéti tions
_constat és
_île defrance
_quas iment
_exp liquer
d am
_dev aient
_agric ulture
orl d
d age
_test ament
_demand er
_poursui vre
_rec on
y dr
_couv ert
_c â
_pl omb
_produ cteurs
ine ux
_par u
_roy aumes
_d'h istoire
_l'h iver
_l'empl oi
_publi és
_l’ est
_m ans
_commerci aux
_par oles
_inc endi
_fid èles
s ter
_di ct
_avi on
_pr êtres
_ha usse
_ten sions
_arché ologiques
_hist oires
ist ant
_é ducation
ose x
_forter esse
_dég ra
ain t
_financi ères
_in verse
_pro ch
_en ch
_ex port
_a xe
_d' es
_l'ég ypte
_camp s
è vement
ic es
_l'abb é
v ité
_dériv é
_ré ception
_évê ques
f ond
k h
dé rer
_peint ures
_gr oup
_bl o
_tram way
e urs
_spor tive
_ma h
_enregistr é
_us ées
_procéd ure
_spor tif
as tiques
_répar tis
u alité
_ré duite
c in
_gar nis
_représent ée
_bran ches
_effectu é
ten ait
_lac s
_dou ce
_civ ils
oc at
_écriv ain
di on
du ites
_comp tes
_méri dion
_division s
_influenc é
_r and
el li
_cri min
_jean baptiste
_so ins
_tour ner
_vra isembl
_guit are
_arr ondissement
_â gée
_bar on
_cent aine
_fili ale
_indi en
e z
_pyrami des
_éch app
_escl aves
a çant
_psych ologie
_accessi ble
m atiques
_pass ent
_proté ines
_char gée
_l'h e
_t oile
_l'autom ne
_ar me
_québ éc
tall ation
_mad rid
_saint pierre
_install ée
_i ran
_t onnes
ver g
b an
om ique
_ég al
_dét our
_financi er
_habitu ellement
_matéri au
_lim iter
y me
_ser vent
_vingt aine
_iss ues
_pré dé
_b lé
_chau ff
_viceprésid ent
_plate forme
_cher cher
_molécu les
_produis ent
_d' «
_ |
_a im
_l'ac teur
are il
_trés or
_in térieure
_tent atives
_éc oss
_qu alités
_témoig ne
_rivi ères
_par ven
_perp é
_colon isation
_industr iels
_successi vement
_nom més
_médiév ale
_cré és
_d'ar r
_contempor ain
_financi ers
_fort une
_vir gin
_w ind
_reconn aître
_graph ique
ie lles
t obre
_domin ique
c a
_w orld
_d’ a
_chim ie
_vis age
_mor ceaux
_intég ré
_rest re
_ ern
_lanc ée
c us
_x iv
_l'ar gent
_aliment aire
_gra ines
_ph ases
_indust ries
_é tro
_d'in f
_modi fication
_li aisons
en ait
_c’est àdire
_s age
_contra intes
urg ence
_ense mbles
_prés erver
_concl usion
_divis ée
_retrouv é
di um
_l'in térêt
_h as
_public ations
_parc s
pr étation
_arrond issements
_s oig
mp er
_aff ect
_consac rée
_consi dérer
land aise
_diffus é
_sur ven
_év alu
c ar
_littéra ires
_ray onnement
_fac ulté
im al
_ad mi
_c ot
_rasse mble
_spéci alistes
_saint mar
_trans mis
_f lè
_paris ienne
cien nes
m il
_donn a
_ten nis
ur rection
an till
_en quête
_p ousse
_col ons
_vul n
as on
_pollu tion
fran ç
_herb ac
_adop te
_co ûte
_règ lement
_impéri al
_méc anisme
_d' emp
_b is
aï que
_r ai
or ique
_voy ages
_d'app el
_av al
_b oy
est es
ov a
_l’ ass
_bar re
_réac tions
_vin cent
ir lande
_, %
_accue ill
_d' été
_pe ur
_dv d
_l'empl acement
_navig ation
_cor se
_dénom ination
_plac ée
_assembl ée
_aff aire
_sep tième
_pratique ment
_mén ages
j i
_ther mique
_u k
_s œurs
_fait es
_trans p
_es prit
_v aud
_b in
_tur quie
_dis si
ten ues
_serv ant
t ol
on ciation
se ment
_g il
_circons criptions
_sauv age
ign y
ti ge
_é dit
_priv és
oxy gène
_l'us ine
_mag ist
_symb oles
_offici er
r iel
ve urs
_inc luant
_y ves
_l’ aut
_cellu le
_alent ours
a o
ch el
_br u
_littéra lement
_rest é
_alex and
_référ end
_contribu é
_priv ées
_z o
_d ites
_d’ ab
_son de
og ée
_l'ar tiste
_commun i
_cre us
al ie
_l’ ad
_g or
_de b
_in térieur
_marchand s
chev êque
_indépend ance
_imm ob
cl ame
_d’ ar
_l'archi pel
_multip li
_froi de
_form ée
_m c
_&lt ;
_m aine
_p ion
_pl age
tin ent
_ab st
_in fin
_t ab
_prés erv
en g
_sur pr
_constitu ant
_gén ie
_postér ité
s te
_historique ment
it z
_exp rimés
_acc ent
_appr ox
é re
_tra cé
_renfor ce
_spéci ale
_ver tu
_appare il
_h ypoth
_ex ige
_voc ation
_astr onom
_ann onc
_surnom mé
_dég rad
c ées
_j ur
_cour amment
_observ ations
_pres tig
_le e
_mani p
_pl ay
_féd érale
_ju d
_bi ble
_francis co
_plat on
_supérie ures
_c ancer
_ray on
_su ites
_interpr étation
_l istes
_w at
_salari és
lec tr
_l' attaque
_quoti dienne
_b onnes
_rest es
_col or
_ord onn
_symp h
_d’ en
os o
_sé di
_e mm
_mont s
_dép ression
_mad ame
_décis i
_l'at lantique
_réalis ées
_incl ut
_p es
_ad ultes
se ctes
_ac quiert
z aine
_occident al
_conc entre
_tu és
_chois ir
_ent end
_concl ut
_st able
_ne t
_ad mis
ém an
_accueilli r
ess es
_ex térieur
_c ic
_ren se
_protest ants
_mar y
_x v
_je tte
_aff luent
_fa cile
_diction naire
_aî né
_gar an
tu els
_fa une
_abs olu
x i
_d ar
ie d
_a ient
_nat ura
jac ques
_univers ité
_prév ue
_fe ux
ité es
_vois ines
_us ines
_évent uellement
_norv ège
_dénom mé
_bl ack
f ils
ili ers
_gouver nements
_parad ox
_mam mi
or tées
_s ent
_ré ellement
_l' ont
_mé tier
_gau le
registre ment
_ex il
_d'ar mes
_men é
tellig ence
_interpr ète
_fréqu ente
_f ins
_install és
om pe
_tra iter
_cr oise
_l'aut riche
_il lég
_v écu
_circons t
_mob ile
_déf orm
_can nes
_ég ale
_cel l
_produ ite
_c oc
_travaill ent
_conf usion
tro duction
_canton al
_cha uss
_second es
in al
ou le
_hame aux
_pi b
_é vi
v ad
_rép ression
ête ments
_sur mont
_ni ce
_t ok
_ver be
_liné aire
_tu er
_arriv é
_gu ère
_sensi ble
_vois in
_h orm
_réé lu
anc ée
â me
_sn c
din and
_div ise
_s'imp os
_imp ressionn
_équival ent
_tra ce
_prop ositions
_desser vi
_lieu dit
_suff ix
_r od
_dist ric
_distric ts
_origin aires
den is
è ves
_p ain
av age
_humi des
_traditionn elles
oi ent
_v os
_fl oristique
_ferme ture
_man uel
_continu er
_dés ert
_la s
_pron oncé
_édi fices
_j im
_l'am érique
_cap ables
_cat al
_mus ées
as tre
_candid ature
éli orer
n am
c ence
_do té
_aux quels
_suscepti ble
_actu els
_cam éra
s ol
us tralie
_prog ression
_marchand ises
j us
w ood
_cré ées
_bar rage
is ode
_voi ci
_ray ons
_us ine
_matern elle
_abs olue
_isra ël
_référend um
_prof ite
_nuclé aires
_visite urs
_p se
_univers el
_men ées
_s té
_ ion
_mention ne
_gra de
_magn étique
_souveraine té
_rest ant
f ace
ui r
_saint ger
_saintger main
_ca en
_v ents
_rol and
_am eric
_sub di
_augment er
_ad ress
in er
_soulig ne
_v ign
_s'op pose
_caf é
oc ation
ac tions
_sép are
_f oyer
_dispos ent
_class és
_quator ze
_prop h
us tive
_ann uel
_démar che
_fid èle
_descend ants
_propre ment
_g end
_voul ait
_re de
_diver si
m ari
_sensi blement
dom ad
_l'in itiative
_se mi
b domad
_provo quer
_rés ulte
_influ ences
_modes te
_con tiennent
_l'aut oroute
_ré ci
_ra che
_o x
_ver te
_équival ente
_ram en
_initi ale
_ten ant
_sû r
_d'oc tobre
_esti mé
_gr is
_intégr ée
_l'ar rière
g arde
_d' urbanisme
ign ons
_culturel s
_journal istes
_l'ins tar
ur rent
ith me
_dédi ée
_ép oux
unis tique
_fa unistique
_can ons
w e
_ét end
_cours es
_gé om
_parois si
_particul arité
ve ux
_an alog
ti lle
_resse mbl
y o
_mi di
_cler mont
f ord
_dis ney
_d’ état
_conf ie
_d its
_cré ant
_d' ang
al pes
_l’ av
r oy
_s ul
_l’emp ire
_v ass
_comp ens
_d ress
_merc ure
_différ en
d un
_mé tiers
_se ize
_sub i
_simil aires
_sol o
_milit ants
_posséd ait
_d al
acc ord
_rece ttes
_initi al
ag u
_d’ eau
_réfugi és
_s ombre
_in nov
_urb ains
_vend us
_fie f
_par ole
er te
_cour be
_op tique
og es
_cord es
_dép enses
cl ési
_ec clési
_l’univers ité
_sus c
_autre ment
_supp ression
_présent ée
_dé port
_élev és
aiss ant
_déb ou
_s'eng age
_bless é
_mo tiv
_ins uff
_ar bre
_a igu
_id entité
é f
_dirige ant
_p ul
_imp lique
_concep ts
_l'al titude
_tent er
_relig ions
_travers é
_que ue
_reti rer
_vra iment
ob i
_an dre
ci ère
_tend ances
_lieux dits
_supplément aire
_cli ents
_d’ab ord
_combat t
_aff ron
at re
_mon g
_r oll
_wind ows
_continu ent
_l'in ventaire
_dat es
tiss ent
g ation
r ants
duc teur
_spor tifs
_ate liers
_étudi er
_abord s
vel ines
_endroit s
is abeth
_science fi
_sciencefi ction
_pas cal
_couv rant
_prép arer
oiss es
_u tile
_r ati
m s
_hug o
_contrô ler
_l’ oc
_gren oble
_tal ent
_emb ar
_remarqu ables
r oit
_l'at mosphère
_combat tre
difi ce
_d'in formation
_cy lin
_au di
_rou tier
_cin é
_l'al liance
_x vi
_proven ance
_per se
_l oup
_inc ap
_récomp ens
_comp ati
_ju an
_démocra te
_cous in
_l'an n
_écriv ains
_fu ite
_de tte
_augment é
_mascul in
_l’ ordre
_l’ île
_pré d
_pot enti
_aband onne
_pour ra
_ét endue
te aux
_l ord
ran ge
_temp ête
_imp ose
mi chel
ci ent
_x i
_habit ant
_on cle
_naturelle ment
_att ribue
_n a
_ré cep
_lour de
_bl ind
_occident aux
_s' av
_propos er
_tr ent
_l’au tre
_spati al
_l’ ét
_d'év iter
_stat ues
ti se
_pse ud
_indépend ants
_qu’ un
_d' ég
l o
_provin ci
_détru ite
ar y
_adj oint
_manifest ation
_organis ées
_l' urss
_tour né
_l'ex pl
_modifi é
_car th
_l’ op
_vis ibles
l ines
ist er
_coû ts
_bas que
_oppos é
_sa x
_is ab
_lég ère
_radic al
_erre ur
in ture
ie use
_sus pend
_modifi er
_s' ass
_gr ève
_champ agne
_sort ant
_fort s
_céré ales
_précéd ents
_championn ats
_a iles
_arri vent
ui le
ouv oir
con tinent
_pil otes
_c au
_expos é
_seu il
ier ry
u ation
_l'ac tuel
_réc entes
_l' is
_cap ture
qu ilibre
_ex cep
_d' appr
_expos ée
ens ité
quip age
_ag ré
_b én
_trans forme
_fou le
_méc anis
_rés oudre
od ore
_dé légation
_jusqu' aux
_qui mper
ing s
_traditionn els
_sat ur
ol ition
_ab ré
_fig urent
_dédi é
œu vres
_temp les
_inter nes
_é mission
_mammi fères
_facil iter
_pav illon
_m aires
_qu’ une
qu itaine
_exac tement
_log o
ers on
_val en
_massac re
_social istes
_francoph ones
id ité
p re
_us ages
_gard er
_sur prise
g mentation
_en tiers
_municip aux
_am our
_fer dinand
_mo tifs
_vie t
_document aire
_pu y
_l’ imp
_sanctu aire
_ol ivier
_inscrit s
_fl ore
_lib éral
_ju p
_jup iter
il ien
è ges
_exer ce
es co
ign an
_moul ins
w in
_parfaite ment
_du o
_ti rer
_c d
_advers aires
_c erve
_indi re
_télévis ée
_l'exp édition
_déta ils
_empl ois
_t s
c r
_posi tif
_mar ty
id ée
_interpr été
si ve
_l'inv asion
_l'in c
_v ag
_protoc ole
g h
_le cteur
_déc om
mb ert
_fol k
_s' aff
_n as
_l'im m
_not ables
_l’ œuvre
l à
r in
_fi ction
_ ur
_reven di
_ord onne
_horiz ont
_ ~
_envis age
_é troit
_pass ages
_l'ét oile
_se xe
_char l
_l'isl am
_exploit ations
od uire
_bless és
_terr or
_ét ablir
té ries
_préc é
_pein tres
_précé demment
_domin ante
_voi le
og ue
di ques
_john son
ï n
_artis an
_a ri
_p air
ph abet
_conf ig
_ne ur
_snc f
_ser ge
_inv asion
_obs erve
_dép endant
_c ouvent
_fond ateurs
_hect ares
_an tiques
_pr ie
_al fred
_vi k
_cour ante
_transform é
it a
ivers aire
_par oisses
p aul
eff ici
_co effici
_fi ch
_pon tific
_gé org
_a xes
imp orte
_b ag
_ég ypte
_effectu er
_cri me
_soix ante
_in ég
_f ine
_ess ai
_commun s
titu des
_affec té
_mathém atique
_ca che
_c ible
_in éd
_cul min
oty pe
im s
_commun ications
_forme lle
_poiss on
_n' étant
_p istes
_pu its
_large ur
_radio ac
_d' az
mpl ant
_actu elles
_remar quer
_déta il
_théor ique
_l'app ellation
g m
ç ait
me tt
is és
_l’ al
ir me
_n ig
erg ence
_vari ante
_acc él
_ad oles
_souver ains
_d av
_tun nel
_sa me
onn ais
_d'h ommes
_l’or igine
_b ap
_é tienne
_modu le
_t ang
min ation
_gé ologique
_exp ression
_rou manie
_ve uve
_nob el
_ess ay
_év ang
te indre
b ie
_l'e mb
_bel ges
_fl ui
_for tifi
_ven u
_demand é
chi ers
_cad res
_c og
_fi chiers
_lois irs
_v êtements
_remplac ée
_air lines
_cour ts
_reg istre
_lut ter
bil ités
_bour bon
ap tation
_c um
_ser ment
_conn ait
_cat alogue
_g n
_ma de
_rencont rer
ant aine
ant oine
_p onc
_statis tique
m ité
_dériv és
_aéri en
tific ations
_p ét
_phot ographie
li p
_can aux
_thé â
_viet nam
_car ref
_prolonge ment
av re
oxy de
_l'ép isode
_public ité
_déc rire
_tâ che
_en gl
_imp act
_pré al
_dra matique
z a
_chan tier
_gé ométrie
_bert rand
_d ign
_thé ologie
_rel ais
_l' ol
c ts
_péd agog
_ri z
_doc tor
_continu ité
p é
_meille ures
_s ir
_développ ent
_cap t
y d
_commen ça
_l'app lication
_approuv é
_troph ée
_ph én
_l ot
_kar l
_ob lige
_z éro
_aliment aires
_spect ateurs
_pré vention
_mal ade
_co des
_interr omp
_ru ines
_maill ot
n ac
_ad min
_br ill
_ch ili
_l' alimentation
_chang é
op ie
_diagnos tic
_l'é cl
_arg ile
_mi ra
_favoris er
_av ance
ati vité
_conf érences
_disp ers
_héri tier
_compr om
_relie fs
_fer n
_ac ad
_préf ère
_pauvre té
_l yn
ic a
it ée
er cice
_sex uelle
_am érin
_jume l
_sugg ère
_considér ées
_déte c
_beau té
_c éra
ent ure
_cons ole
_saintje an
_per mit
us age
_isra éli
_ét age
or ph
_élector ale
_comport ant
_précéd entes
_cham bres
_cré dit
agn er
_d' ordre
_poi tiers
_f res
_é mile
_ence inte
_ êtres
_for c
_spéci al
_coll ines
_r oc
_se ctions
_conj oin
_compr éh
ag ées
_sé quence
_incl us
_mathém ati
_pla ques
_tr oy
mi ers
_gén érique
je ct
ub le
anc y
_d'at h
_s'imp ose
_bé arn
_al té
_destin ées
_cerve au
di a
ê ne
_st abilité
_terr estres
_stock age
_cidess us
_mill én
_suff it
_chante use
_rép é
_goth ique
ra ines
_ar gent
_abond ante
_r ives
qu ait
_ne veu
_l'ex emple
_subst ance
_cri mes
_bo e
_har ry
_boe ing
_ind isp
_d a
â ts
_permett ait
_met z
_fonction naires
_for d
_l' avant
_famili ale
r oi
op tion
_t ap
_d'empl oi
_pron once
_re ims
_p oit
_acc orde
par tement
dé partement
_k ur
h el
ord in
_exist ence
_l’ ouest
ver gne
_h ans
ydr ogène
_déc ro
_pas teur
_nécessaire ment
_per ception
_l'ac trice
_ass iste
_dom ine
_l'ac te
_enne mi
_ca o
_situ ations
_mon op
_développ és
_ph ara
_rê ve
_mâ le
_gab riel
_l'é m
_améli orer
_b ons
_ac cum
_signi fication
_mar ques
_ch ien
_sculp ture
é ran
_pi ra
_canadi en
_commenc er
_ré clam
_a ider
s it
_command es
_o v
_dép ôt
_st an
_avant age
_b ig
_chev aliers
uré at
_c rain
_exist ait
_envi r
_spor tives
_personn els
_ren nes
_garnis on
_mor ceau
e urope
_l'app areil
ir al
_constru ites
_s tre
é mi
_re ich
_hui tième
_s'é lev
_s' ils
_de gr
_degr és
_ju gé
_li ve
iti é
_démons tration
_entour é
_gar es
_dé fic
_l'ar c
_conserv ateur
lé matique
_chasse urs
_mont pel
_sé le
_effec tifs
_ph arm
_s'ag issait
_syn op
_indi g
_dev oir
_mâ les
_v igne
_effec tivement
_ne f
_quas i
_rac ont
_th ierry
_conver sion
l és
_nap les
mi er
m ées
o tique
_franch ise
_ap oll
_d' id
_fisc aux
_circonst ances
_dé troit
_s tim
_bour se
_loc alement
_l' être
vision s
_att end
_vi i
_s ultan
_c ite
_l'au gmentation
_prom ouvoir
_spéci alisée
_holl y
_ant oni
_le ader
_ ondes
_chr om
h étique
_man oir
_ath én
me urs
_d' air
_lib ér
_meur tre
_p este
_l'as pect
_j '
dice _
_jui f
_co dice_
_vic om
_humi de
fe ction
_suffix e
gu erre
_retour ner
_g and
_au dio
_triom phe
_s'établ issent
_ré h
mp h
o ît
_am ont
_mus icien
franç ois
_a cides
_phot ograph
_flor ence
_compr ise
_mariti mes
_cinémat ographique
_artific ielle
_compr ennent
_mécanis mes
_domes tiques
h uit
assin at
ad el
_dé truire
vie w
_bac téries
_propag ande
ri mer
_rappr o
_reti re
_illus tre
él ande
_défini tive
_aus tralie
_plac er
_g illes
_char gés
_produ c
_mo tif
_re met
_bou che
_att ent
k m
_cons om
and on
_cor ruption
_n ancy
_perman ente
_pal é
c tement
_mont er
_div ine
_dra gon
_du b
lé ments
_nob le
_dot ée
_scand in
_im me
_compos ants
_li ège
_rac c
_n œu
_r endant
_cl aire
con que
ter rand
_par viennent
_évolu er
_advers aire
_massi ve
_souter raines
_prim aires
_m r
_cond uire
_entrepr end
_t é
_moyen nes
og ra
_v ues
_resta ur
_approx im
at aires
anc é
_ther m
_grande ur
_rest era
_mang a
_conn aissent
_th éra
_bure aux
_offic ielles
_vi êt
_fich ier
ce voir
_char ente
_indisp ens
_d'aut riche
_s' arr
_tub e
is tiques
_bass es
_nav arre
_l'é levage
_propos ent
_viol on
_bar cel
_gal les
_man uf
_centr ales
_barcel one
_spectac les
_symp t
_h ub
_r all
_dé fi
sit ôt
_aus sitôt
n s
_transform er
a illon
_deven us
_voul oir
_princip auté
_br o
_ma ur
_remport er
_arrêt és
_sau ver
_d' enseignement
_j av
n ellement
è vres
g v
_holl and
_habit ats
_l’ex p
_antérie ure
_méditerrané en
s me
ac le
_reç oivent
_mar ne
_su z
_philosoph ique
_pati ents
_conform ément
_généra tions
jet s
_l’h omme
_dég âts
_illus tr
_indi ens
om ie
char ge
_bat terie
_écl at
_scol aires
_bloc s
_tok yo
_emp ris
_cons tell
_pass ée
_eug ène
s en
ic s
_l'inter médiaire
_élev ées
_déc rite
_suici de
_comp li
al ors
_occup ent
_viv ants
_ ├
_sous pr
en ri
_dispar aît
_d'al lemagne
_gas ton
_orient ales
_li qu
_ad resse
_or ange
_aus tral
_lign ée
_mal heure
k istan
_in des
_écrit ure
_intercommun alité
_débarque ment
m en
h t
fort s
_ce inture
_montpel lier
enne mi
_vi ole
_imm ense
_génér ales
ic o
_effec tif
_lar ges
_carref our
_ad ulte
dic ap
_han dicap
_puiss ante
_péri m
li ques
_somme ts
_respec ter
oso ft
_exploit ation
_micr osoft
_fer mé
_rec r
_l’ ag
_glob al
_ex térieure
_parf ait
_sant a
_n' étaient
an y
_s' être
_sc ott
_aff ai
_eng agement
_reç ut
_baptis é
_rom aines
_biblioth èques
end o
_écoss ais
_organ es
_pr ussi
_plur iel
_m out
─ &gt
_ajou ter
ond ation
_acc ro
_égyp tien
_ad am
_conserv atoire
_ti ré
_remont er
_p ente
_rou en
_l’ une
_arb it
_inc endie
_direc tive
_déri ve
_con vient
_pl ou
ul ée
_calc aire
y e
_al ter
_ir landais
_protég é
_d'ac cès
_déci d
_refus é
_mus iques
_sal aire
_muni ch
_gar anti
_dangere ux
_aff ront
_parten ariat
_t v
_foss iles
_étudi é
chite cture
_exp ress
ç onn
_l'arr êt
_fémin ine
_l'avi on
_fr ied
_char s
_herbac ée
_techn ologiques
r us
_médic ale
ont an
_sp ontan
_gl oire
_pr ête
_rel atif
_l'ins tallation
_fant as
_aut onomie
_br ou
me ur
_r d
_trent aine
_aff lu
bdomad aire
_proc ure
_phot o
_fé od
_sold at
_f al
_territori al
ri ment
_nar ra
ur ance
_not able
_amb assade
_l'am b
_ratta che
_alli é
en z
_test s
_él arg
aisse ur
_from age
in ts
_l'é difice
_lou ise
tin s
_compagn ons
_sauv ages
_mic ro
_organis és
_fais aient
_lour des
_dé ch
ch n
_b oiss
_ouv erts
_augment ent
le ts
_ti mbres
_ordin ateur
_l'inter vention
_hum an
_my st
_l’en vironnement
_sain tes
_exécu tif
_b ir
_beaux arts
_abou tit
_ve de
_mat rice
_pol émique
_bab yl
_tis su
m as
_esti mée
_assassin é
_l'ex trémité
an ni
_ter ras
_l'ex trême
a ments
_exter ne
_scand ale
_remp li
_ch at
_exempl aires
_ri o
_ba illi
ène ments
_manuscrit s
_du t
_d'esp èces
_s’ ins
_vol c
_atte inte
_crois ade
_accue il
_ass uré
_dé mis
_all ait
_aut och
_psych an
ap e
_pas decalais
_d' ouv
_ent ame
z ième
_témoign ages
_d oig
_g old
_jou ant
ul teurs
_d'an imation
_univers itaires
_l'é chec
_empê cher
_d’ av
_techn ologique
_rap ides
ence inte
_camp us
_norv ég
_christ ophe
_alg or
_qu ad
_tr on
_d' est
_dan ois
_fix é
_re ct
_i rak
_gu ér
ch at
_récup érer
_déf un
_g ère
_vou lu
iss age
_mit terrand
_combatt ants
_f is
_artis tiques
_mour ir
_cos tu
_anth rop
p ent
_son s
_prisonn ier
_synop sis
_publi er
_l'he ure
_pour suite
or ant
du ctions
_tour istes
_po che
_em manuel
ab ol
_québéc ois
_défait es
_j ury
_t ort
_ex positions
hi b
_recons titu
_fl anc
_mine urs
_ench aî
_accus é
_a ér
_diff use
_ac trice
_feme lle
_jean paul
ch r
_méd ailles
_discipl ines
_assi mil
ill us
_possi bilités
_vraisembl ablement
_d' ap
cin q
_e li
_spéci aliste
éli x
_av is
_ré b
_dén once
_réb elli
_s'ins crit
us te
_re mettre
_m use
_signific ative
_d' off
_bat tre
_petit fils
ph érique
_desc endant
_év ac
_empl oie
avi ère
_am ateur
_d' entrée
_th ém
_b avière
_s par
_répert oire
_t ribu
u mes
_const ate
_bou c
_ag ent
_ball on
_tent ent
_frag ments
_stal ine
_favor ables
_lourd s
_in tra
et s
_h ill
_adop tée
_e p
_alg érie
_s ap
_t ché
_quan tités
_mesure r
_b et
_bass ins
_éch ou
_vaisse aux
_vi chy
_récomp ense
_grand père
_francoph one
_off ice
ra its
lè te
dr ome
_y u
_c uré
_c n
_rou es
_offic iels
_d’ al
g ues
in ations
_ven ue
_rencont rent
_mo ine
f ance
_croiss ante
_glob alement
_hydr ographique
ra i
_éc ar
_gé rer
_renouv ellement
_par l
j an
_région aux
_lorsqu' elle
_n °
_révolution naires
lu c
_combin aison
_observ é
_plac és
_multip lication
_f irent
_tomb eau
_prie uré
_tit ulaire
_ate lier
qu a
_con te
_posséd ant
_s'en f
_typ ique
_travaill é
_n' importe
_témoign age
_dou x
_dra me
_simultan ément
_s qu
_et hn
_d' ess
_l'éc art
_b elles
_rénov ation
_jack son
_for um
tif ie
_inc orp
_lib an
_neut r
ic acité
_gar çon
_lib éré
_cl a
_sén ateur
dic ation
oph one
_pati ent
_inter view
_stric tement
_br uit
l oire
_config uration
_brun o
ill ons
_y velines
an çon
ab oration
ta ve
ch amp
_repr enant
ond rement
_contribu tion
_g ou
_étudi ant
au re
divi du
_conf ort
_culmin ant
_mon étaire
_disp ute
_mont rant
un s
ov ie
_cav ités
_l’or ganisation
_ath ènes
_l'op inion
_/ /
_témoig nent
_pres s
_inter venir
_l'ép re
_l'épre uve
ock ey
_l'es c
_réserv é
_di alogue
éro ï
_fondament ale
_hypoth èses
_rad on
rig ue
_chir urg
_syndic ats
_juri diction
_préc urse
_qu' est
on ies
_cr ue
_rés ide
_pron onc
_ben oît
u ée
_l’in ter
se pt
_j ones
_dimin ue
ut ri
oy ers
_abs ence
_triang le
_mar k
_col ère
_considér ant
_blan ches
_trans par
_vas tes
_dist ances
_insuff is
ra y
_publi ées
_bouddh isme
_ca h
_w i
_sort es
_cr oire
u p
_commun ément
_guit ariste
_holl ande
_qu ai
_enter ré
_constitution nel
_jusqu’ en
_nom mer
_repr ennent
_fame ux
_coloni ale
er ç
_rédi ge
_j oy
_s'install er
_d' occupation
_pl ain
_lé op
u mb
_répert ori
z élande
_fer mes
_nouvelle zélande
_sup érieurs
è nent
_rect ang
_atti re
_ré or
_cré ateur
_utilis ateurs
_ré vision
_quit té
_châte aux
_su isses
_écrit es
_accomp agne
le m
_ab us
_météor ologiques
_énerg étique
tin t
_vra ie
_t ony
_des ign
_t f
_tomb es
g re
ganis er
ches se
_br ie
_fin lande
il ée
and a
h eur
ot am
_g ym
op otam
_for tifications
_réuss ite
ony mes
od ie
u aire
è bre
_pl ong
_sam uel
_confir mé
_puiss ants
_jus quel
_jusquel à
_demifin ale
_jean marie
_ren vers
_municip alités
département ale
ur ité
_soir ée
_alg éri
cu les
_s ard
ori al
_g el
_subst ances
m ét
_at omique
_sain té
_certaine ment
_neu tre
_s’ ét
_circul aire
_convainc re
_pres tige
_mour ut
_appar ent
_inaug urée
_cel tique
_l'id entité
oin ts
_amoure ux
_fin ancer
_wal ter
_avant ages
_transf éré
_form és
_l'al phabet
_con go
b al
_m ers
_législ ation
_min is
_pre uves
_syl l
_œu fs
_prosp érité
_inter vention
_désign ant
_in sectes
_s phère
_l' ou
_afflu ents
_maje ures
_légend es
_compréh ension
_hom osex
ri chi
_angl os
_hong rois
_gar çons
_anglos ax
_p ne
_répar ties
_brig ade
are t
_isab elle
_vec teur
_élector al
_bos ton
_comp ositions
_lors qu’
_vac ances
_sty les
_phili pp
_temp ore
_hiér archie
_ins criptions
ê cher
_philosoph es
_ib n
_déplace ments
c rite
_perturb ations
_nation alité
_traite ments
_r aces
_h eur
_ann on
_ar d
_déc r
_parten aire
_d'ad ministration
tu elles
_p ist
_attest ée
_la ur
_am ateurs
ic on
_représent és
_clo cher
_conc lu
