_ d
_ l
e s
e n
_ p
o n
_ @
_d e
_ c
_ ,
_ s
a n
r e
_ a
t i
_ .
o u
q u
i s
e r
_l a
i n
en t
_ e
a r
_ m
l e
i t
u n
_l e
o r
_ f
_e t
_ t
u r
_ en
i l
o m
ti on
_ r
t e
_ à
_l es
_l '
_ n
qu e
_d es
_ un
_p ar
es t
m ent
a l
u s
_p r
_d u
_ v
an t
ou r
_ é
i e
_ b
_a u
r a
m e
an s
_ g
on t
_ qu
c e
_d '
a u
_ est
_c om
e l
a tion
é s
a s
r i
v e
o l
a t
é e
_d ans
_d é
n e
c h
_c on
s i
_ re
_un e
r es
c i
_p l
s e
_ j
a i
_ il
a g
a is
d e
_s e
_p our
_c h
o i
m p
t é
l i
_qu i
_c e
_ h
o p
_ in
_r é
_ que
r an
a it
a in
_s ur
a le
l es
d i
_pl us
er s
o s
u x
o is
u l
_pr o
a c
t u
é r
_s u
_t r
p r
a b
è re
t re
un e
f f
ur s
_ ou
_s on
_com m
_ :
or t
u t
i g
it é
è s
en d
_d i
a m
qu es
ve c
_a vec
ou v
_ an
_s ont
a p
_ o
é es
m i
il le
v i
ai re
t r
l le
el le
o t
_p e
_ »
i que
is t
o g
_ «
u e
c tion
p e
_é t
it e
i c
i on
_par ti
_s a
g e
u i
_p as
t te
_e x
ag e
_f ran
c es
_n om
é n
_ i
or s
au x
in e
_com p
_t ou
on n
_l ’
é t
ent re
u is
_m o
_f or
_con s
_a l
i v
_n e
t er
b re
an d
p ar
ch e
o c
_m ar
_com me
r é
ti que
_t ra
u re
e t
_m ais
_au x
_a v
er t
en s
i r
on s
en ce
o it
_p re
or d
_a c
_de ux
é ri
e mp
_qu '
_s ou
_ce tte
_a r
_pre mi
_s '
_l' é
on d
in s
_t er
an ce
_s es
_a p
_e lle
_c ont
t es
is e
m es
é ra
_c ar
_s i
oi re
_ entre
u b
d u
ation s
m b
t res
a ti
oi r
_g ran
a y
_é té
_ %
r it
_f ait
_p er
i en
ale ment
a d
p h
c u
il l
_d ’
ment s
_d' un
_c l
te ur
ti n
a ce
_comm une
ê me
pr ès
_dé c
_j e
_d is
i d
tu re
_an n
_pr é
ant s
si on
_d' une
our s
_g r
_f in
ar d
o y
n i
_l i
_s t
ci p
ou ve
_pr és
u m
t s
ê tre
_ ont
_m é
l é
an g
_ ;
_ré g
_m on
a v
ai res
_c es
ti l
_s er
_é c
e x
è me
al es
_d ont
ain e
' est
_é g
_t h
_ on
ti f
_comm un
al is
_a in
_fran ç
_ain si
_le ur
n es
ol og
o ci
_sou s
_a près
_a us
_pe u
_ or
_nom bre
p o
c t
_ es
_ y
m in
le ment
_l ui
en ne
er re
_p h
_a s
_m ême
ub li
_al ors
_r és
é g
_i mp
_p uis
_l ors
tion s
_m a
_g én
on ne
_g u
_p o
_aus si
_c el
tr u
_pr in
o b
_di ff
as s
an te
_franç ais
_s y
te ment
d es
_ ti
_p ol
_pr op
c o
_in ter
_c ol
at s
ou p
end ant
ti tu
_t emp
t t
i m
_l' in
e au
_f il
è res
v en
é d
ent e
ai ent
u til
_a d
_re pr
is te
_pe ut
_m il
_ch e
_ être
_j us
_fran ce
_ég alement
it u
al l
ab le
_qu' il
p ort
or m
f in
té r
_a m
_tra v
_p ers
p uis
i ques
_v ille
s t
ie urs
_se c
_o ù
_m e
_tr ois
_p os
ain s
_parti e
_p ay
_de puis
ur es
_c or
_r es
_ch a
t en
ouv er
_c r
_re c
é m
_o b
te urs
it és
_c ert
ig ne
util is
is s
ie u
_r en
_pay s
_tr ès
_gran d
_ap p
b le
_ w
_ét ait
on g
_tr ans
_for m
_l' ar
in t
_c 'est
_n ot
_plus ieurs
ig n
_c a
ou pe
ér ie
_p ubli
ra ph
_ k
_premi er
ti v
_s ol
au t
_l' h
_ex p
_v i
_rég ion
_t our
_de r
ent s
_c ré
_f ut
_c o
_s ain
ti s
_c our
v ent
qu '
_n '
_dé b
j et
_s oci
_r ap
_ z
an is
_m an
_m ont
ci en
_premi ère
_v ers
_pol i
l u
_e ff
_s é
on c
_per me
r on
_ann ées
_s el
_con f
_ch ar
el les
ag ne
_au t
_b as
_cont re
_s itu
_a b
l è
us e
_con c
_prin cip
_ac c
ag es
_s p
am ment
_su p
a re
og raph
ti ques
_j u
_dé p
_sel on
_p op
_pro du
v er
in g
_ utilis
ou s
_ré p
_con n
e c
_tou t
_p i
ol u
_der ni
_pop ul
_dé par
_n é
u es
ar i
_n ouv
ur op
_m us
_r om
_n ation
_b ien
_il s
_pers onn
_é le
_m in
al ité
_l' an
_c ap
en ti
_b i
an de
_é v
v is
_diff ér
i re
_av ant
_d és
ain es
f i
_s c
_h ist
_n ord
v el
_gu erre
_s ans
or te
qu i
o de
_as s
_c ul
g l
_not amment
_l ong
is se
_ter rit
_l' un
o le
ag n
at ure
as se
_t y
ction s
_ ans
_b r
en se
f ic
g es
_mo y
an c
_n i
_d onn
_s oit
l les
_jus qu'
ce p
_o c
m é
it s
_su d
il les
ri c
on om
_p éri
vi ent
ie ux
ais on
_su iv
_c in
al i
_di re
_au tres
_que l
_d' au
_f e
_ │
si tion
ri b
_sain t
_gran de
_f on
_c as
or i
co re
ne ment
ais s
vel op
_r ou
_n ouve
_c an
_m al
_d om
er v
_in s
ch es
_re l
_m at
t h
a ille
_c li
_dé velop
_repr és
_d ur
it es
_temp s
_in f
_par is
_es p
_f r
ch er
_f ond
_imp ort
_j our
_a g
a te
_m ort
in es
a î
_f ois
_d r
c l
_a tt
_f er
_le urs
m is
ti ve
_en core
v es
_pas s
_ap par
_gr oupe
f ois
_su c
è ne
op h
_j ou
mb le
end re
_l' ex
_p ort
ouv ent
_pe ti
_de v
_r i
_par t
olog ie
_cons titu
cu p
_mo ins
n ée
_dépar tement
_v ie
li g
_cel ui
_p ouv
é té
mp l
_pro f
_qu at
_for me
_tou te
_f a
m ée
_e urop
ant es
_v er
_c elle
_o ff
_déb ut
_d onc
_tou s
_l oc
_c at
_ser vi
i ème
_fil m
di tion
t a
el s
o se
r ent
_mo d
éra tion
œ u
v ers
_f am
v re
_ op
_parti cu
_cons tru
_b l
m bre
_n o
_r oy
ê te
_pl ace
_poli tique
_ré f
_th é
_ ent
_mon de
_n on
_je an
a tique
er n
_n ature
_l ég
_parti r
d é
_z on
re r
_dé f
_a ff
_con si
elle ment
g anis
_d ou
_ex emp
_c ent
_su ite
us es
_ré alis
_l ang
_cli m
ér al
_app el
_h om
i x
_f aire
_c ours
_l' ac
ô le
_dé m
_av ait
ou t
il i
_p endant
n ent
_g ouver
ét at
_prés id
ent es
ch é
_m et
_d' é
_h ab
_l' a
_v is
t ra
ab les
_particu li
_é p
g r
_représ ent
olu tion
_m en
p endant
_c ô
_consi d
_in di
_pré c
_ét ats
_r oi
_f l
éri c
_r est
_péri ode
a teur
_quel ques
ur b
_nouve au
iv ers
_perme t
ie l
ograph ie
_é tu
_nouv elle
_sy st
b les
_av oir
po que
_v ari
_con se
is es
_publi c
_n 'est
_eff et
_t e
_g ra
_cert ains
ist es
_se u
an ge
_gén éra
_l ieu
om b
_car ac
_d'au tres
un i
_g é
_comp os
_popul ation
s u
é ci
_français e
m and
er g
es se
_s ouvent
_r a
_commun es
m an
_c ou
c ul
_ce pendant
_li b
_ré v
_quat re
en ces
o d
_d ès
_com pr
a de
_b at
ra tion
ri v
l er
i ti
_exemp le
i es
_c entre
_cha mp
un is
_pl an
_v ol
_p at
_au tre
_fon ction
it al
_nombre ux
_territ oire
_v ic
oi res
_comp te
_pro g
on de
_cont ra
_m es
_a lle
_gén éral
as si
c le
m ar
ti ent
i de
_prés ent
_pro v
_ma j
c ès
ol es
i mp
ê t
ati ve
_cul ture
n ation
_comm er
_sp éci
_man i
que l
_de vient
_europ é
our d
a z
_d' ar
si ons
u it
i ci
ère ment
ig ine
oi x
_dur ant
_m is
ul t
_peu vent
_dr oit
p os
_en vi
_dé fin
it aire
is me
_d' in
_si è
d us
_trav a
_m ét
_s al
_ni ve
an ces
é lé
_te ch
_tr ouve
min ist
_l iv
_b ar
_am éric
ur ent
d ent
p l
_i m
_li m
it er
_syst ème
_dévelop pe
_fam ille
_in c
aî t
_pro b
_pouv oir
r o
rib u
_h au
ap p
_l' or
ces s
_mon di
_d' h
_b eau
_l igne
f s
_v ill
_déc l
_ét ant
y ant
ri ère
ti en
ti er
_c ant
our g
_éc onom
_cha que
_l' al
ou l
e ur
di c
_l og
_derni er
_con tin
_gouver nement
_che z
ou est
te l
_se p
_des s
_c ri
es p
_jusqu' à
om me
_su b
ti e
è g
_l it
li c
è de
_l' emp
i er
_d' a
_com b
ri que
_ '
_perme tt
o ie
m o
_a fin
i tion
_de ven
d re
_ce t
om p
_inter nation
_ty p
_ti tre
_pl u
tér ie
_ét aient
_pos s
_pr ès
ér é
ab l
_hab it
m me
mb l
_ x
g u
_re t
au me
h ui
_ou v
_d oit
_ap pr
_a yant
_qu ’
_soci été
_res te
re t
_pro jet
_nive au
_pr es
j ourd
_d ist
_c al
us s
qui pe
vis ion
_ré c
_conse il
_ch â
_mil li
olog ique
té g
en c
_ urb
_t ot
_a ur
_fil s
_d' or
_hist or
_états unis
_m i
_s érie
_or ganis
o in
_g ar
j ours
_au jourd
_ œu
_po int
f orm
su ite
_par mi
oup es
ille urs
ô t
_ac tu
_rap port
_form ul
_en f
_m er
a teurs
é l
c ri
_ca mp
_rép ubli
tif s
_sec ond
_qu ar
cup ation
_e lles
_s ens
_tou jours
_m ois
_e mp
ra s
_re tr
_b ou
_éc rit
aiss ance
â ge
_nation al
_l ou
_t ard
tr ie
_m ouve
te mp
_m ot
il ité
_mar qu
is tre
_bas e
_la r
ra it
_f ort
ist oire
_se ul
z e
_es s
_tou tes
_moy enne
_présid ent
_m ain
_dire c
_cl ub
_clim at
_en suite
_cin q
n é
_g l
y p
or is
au l
é v
_t en
_s ig
an n
ot h
po sition
ien ne
us ion
_é ch
om m
_col le
p s
isse ment
è le
r ée
ui re
_r ôle
_m uni
o re
_servi ce
_s or
_c ir
_re lig
le x
_ann ée
_situ ée
_formul a
è ces
_formula _
_nombre uses
il es
_l u
_ce ux
_h e
_l oi
_sol s
' hui
_carac tér
_j o
_v en
_cap it
_en se
_m ise
_g en
_hist oire
_pos si
_pi erre
_f ace
c ont
_grand s
_an gl
o x
du it
ord re
_ad minist
_aujourd 'hui
_f ont
b um
on y
ati ques
_in st
_développe ment
ois e
_i d
â ce
_l' au
_s ’
c ture
c oup
_par fois
î le
ri g
_moy en
mb res
p ond
_trav ers
_a t
_ty pe
_ is
au té
_si x
_zon es
_v al
_cert aines
_j am
_gr âce
_r èg
_re cher
a vi
_ter me
or ité
_trans port
_g re
_m or
_t ant
oi g
_temp éra
_châ te
i ent
_si mp
_s our
_cant on
pe c
_qu' elle
_é l
_re f
_ren cont
_t élé
_c oup
ci dent
_a illeurs
co le
_sec onde
_th e
_personn es
g ré
_an ci
qu er
_d’ un
_s cien
_ter re
_t ex
i me
_or ig
_premi ers
_re mpl
_fran c
il s
_cat h
_cel a
_h um
_rec onn
ai r
_re ç
y si
on e
_d oc
_f ré
_ret our
fic ation
_lang ue
_l'an née
é tique
_ass oci
_envi ron
_cor res
ais e
an e
_mar i
_deux ième
_tra dition
_corres pond
_sy n
_l' oc
_vic t
n er
_a tte
_p ère
ois s
_di vers
_par c
_off ic
_suc cès
_produ ction
cri p
m ande
_s au
_ser a
er ie
_v ale
_me mbres
_d’ une
po se
_é lé
_an cien
_ac tiv
_pr end
_b el
o v
ra ge
_r end
è se
es tion
_différ entes
a me
_j ours
ac es
_au c
er ne
_i i
_rés eau
_je u
_s ign
é c
ol l
_au g
_nation ale
_l' état
è te
_r aison
_lou is
_v e
_c ad
_mondi ale
ass in
_tech n
_s' est
y n
é cu
res sion
_pr ix
_g au
_roy aume
_pr is
es s
_b â
_muni cip
_che f
_jour n
_t aux
è ce
_cl assi
f or
_re mp
o che
_j ac
_cor ps
cep tion
_beau coup
_né cess
_lar ge
m mes
pe ct
_trava il
è rent
_n' a
_la que
di tions
ç on
_dis tin
_parti cip
_prop ri
_dé j
_laque lle
_r is
_f ais
_p or
_f ra
_toute fois
_e mpl
ve ment
_alle mand
_dé ci
u g
éri que
_cont r
é li
_v iv
_cré ation
on i
_l ig
_particuli er
b e
_pr iv
ci pe
_cons t
_puis s
_dévelop p
_rap ide
en nent
_prog ra
_caractér is
_l' ab
_déj à
_v oy
_zon e
è tres
as ion
_sig ni
_d' ac
_p orte
_v oit
ag it
_s aison
_re gr
_p al
t on
_n orm
_b rit
_histor ique
_l'é c
_constru ction
_lors que
_rév olution
p i
_châte au
_habit ants
’ est
_j ap
_l'é poque
_res s
è nes
_sup érie
_f our
_différ ents
si onn
_long ue
_ch ange
ra le
_ar r
_eff ec
t out
_sur tout
_ch i
_l iste
par t
ér ence
_l y
_se in
u d
m er
tr o
é ment
v res
_l' ense
_f ig
_ us
r is
_ph il
_prés ente
_f ai
m ême
_d' ex
_commun auté
h n
_thé or
û t
u ve
_v a
li er
_jap on
m a
en nes
gl ise
ti ère
_s ite
_char les
_mais on
_gre c
_l'é glise
ri er
_vill age
_sa v
_prov in
and is
t ant
_po in
_m ag
é lè
_champ ion
_entre pr
_ex iste
_f ac
_t andis
_v oir
_cons erv
r y
_mouve ment
qu ent
_r ob
_républi que
_ré par
_f i
_mus ique
ou se
_dev ant
ur i
li que
_prop os
ti ers
_aut our
_je une
_l' ins
x im
ni ques
_jou e
_re j
_l'h istoire
_peti t
_généra lement
_d it
qu é
i vi
b res
on ce
_nature l
_d ra
_plu part
_l' ob
_in dus
_ét abl
_pat ri
_l' e
il li
_d onne
_f le
_je un
alis te
té ra
_t ête
ti t
_b ut
_d' en
_st at
_pro che
_re ven
_ ant
_dis p
_al l
u le
_pré v
_commer ci
_mal gré
_d' ab
_un ivers
_mé di
_re v
en ant
_rom an
én é
_seu lement
_ch er
_pré f
_ch ap
_trois ième
_hom mes
_aur ait
œ ur
térie ur
_l' imp
_orig in
_qu and
onne ment
_f urent
è mes
_l' est
_mani ère
_d ens
_l' on
g é
o te
_exp l
_an im
_t u
_di x
_b ois
_en fin
_as se
_ag ric
_utilis é
m agne
_s tru
oc k
_prop re
_c y
a ï
anis me
res s
ten ir
le ction
al y
_gran des
it aires
_le t
on ie
_ob s
p end
el l
_rés ult
_mil ieu
_dés ign
_ iss
_dom in
_pr om
ti tion
_e ux
_l' en
_col l
_europé enne
_lit téra
_trav aux
at ta
_tour n
du c
_dire ction
_m y
d r
_v illes
_angl ais
_produ it
j ec
ie lle
it h
_fe u
_déc ouv
_donn ées
_enf ants
_m ati
_con d
_l'ar mée
titu de
_g e
_suiv ante
_d' al
_pro t
_ ord
_des tin
_v oi
u c
_ar tis
g er
_sep t
di o
_cel les
_cô té
_l' am
_prés ence
_p ap
_ca use
ra î
_peu p
_st ation
oc ra
_bâ ti
ab lement
temp s
_é poque
_comp agn
_liv re
_import ant
_cin ém
_s' ét
_dé n
_ ital
ti c
_tempéra ture
_administ ra
_derni ère
al ités
_m om
_cou le
_p u
ch ite
_en v
ven tion
_l'un ivers
_princip alement
crip tion
_conn u
_cl ass
_éle ctions
ysi que
_min istre
_je ux
re ur
an ique
_bat aille
_pas se
ran ce
_premi ères
_ver sion
_me ille
ra in
le v
_permett ant
_mil itaire
l ie
_éle ct
_cl asse
_celui ci
r u
_su ff
_économ ique
av ant
ur é
_en g
_s ort
_et c
_v all
_n um
i le
_che v
_éle v
_qu ali
_cad re
u el
_b an
_t able
_l' esp
_f ab
_mi ch
_st y
au d
_situ é
_comm ence
_aug ment
_s' agit
_form ation
_seu le
_b ord
_dis par
ces si
di re
_import ante
ét és
_t omb
_po sition
_ /
_m ul
_d ate
o w
_nom mé
os s
_qu it
_acc ue
is ation
_ph ot
_fin alement
_t op
_ma î
_sup p
_le quel
_territ oires
_tr op
_r ac
_c it
_mes ure
os oph
qui p
or ation
_se igne
t ures
_jam ais
tive ment
_colle c
_nouv elles
_siè ge
_jo hn
p pe
o des
_poss ède
u ment
c éd
a di
alis ation
dé pend
_r ue
u te
du ction
_b on
ê ts
_si m
_ne w
_s us
_l’ é
_dom aine
_comb at
d it
_l'ense mble
_in iti
_étu des
_att a
_sur f
_h uit
_phil osoph
l and
ion s
_l' île
ri ce
_an g
_n ég
_recher che
_ser ait
t ère
_h aut
_t ri
_ét at
_situ ation
ert s
de c
_mét h
_su jet
_fe mmes
_sup er
t ent
_l' ouest
ati f
_dis c
us se
iss ent
_dé ta
_s h
ograph ique
m ont
é b
_ter res
_poli tiques
_p s
_es ti
j e
a h
n el
_n ous
c rit
_f éd
urop e
_possi ble
_al bum
aî tre
_l' aut
c asion
mé di
ar s
_d' e
_car rière
_fe mme
_d' être
erg ie
_f av
_s omme
_milli ons
_a li
_peti te
_t ent
_vi ol
_inf lu
_ch am
_l' ad
_ess enti
_un ique
_de mande
én om
_me mbre
_rou te
er ve
_sc ène
_scien tif
_rapide ment
t és
mis sion
_p ont
orm ais
_dés ormais
ill er
_s o
an ci
_fa çon
_an d
_f ille
_rés id
ér it
m ment
_sy mb
ab li
_l' ét
en si
_mom ent
_l' op
re g
_b ourg
o ite
_b ret
_mat ch
à dire
u li
tiv es
_ou tre
_d at
ais se
â tre
ic ation
tiv ité
_p a
_ ol
mi que
is l
_t rib
olog iques
_car te
x e
_d' eau
_lui même
_esp èces
_l'or igine
_servi ces
di fi
tr op
_mar s
_acc ord
_rempl ac
_a ra
d s
_d'ab ord
onom ie
_qu' un
_pl ut
ille t
_appel é
_pro te
_qu'il s
_suiv ant
or me
_gau che
_ –
_h en
_dép l
_pr atique
_pe in
_t els
_c am
al le
_œu vre
_franç ois
ch i
_ —
_mé té
c ur
_agric oles
_b éné
e reur
_conc ern
u elle
_ âge
_l'é v
ter re
f ie
_particuli èrement
_e u
_é qu
is c
_étu di
at oire
_cré é
ét aire
_é quipe
_ch ois
_d' état
_mé d
_c ’est
_tr oupes
_oc cup
_du c
_généra le
ais ons
l in
_préc éd
_ge or
_g al
_v ue
_al li
_tr ouv
_qu' une
_s ant
_typ es
_o f
_capit ale
_r u
r és
_c ité
j ou
_fai ble
_prof es
_ar m
_ph ili
_ét ran
mo ins
an moins
_né anmoins
_cath ol
_m ère
le terre
_europ e
_compagn ie
_bl anc
_l' at
ait e
an ti
_se mble
_rencont re
_ â
_comm and
_ch ans
_me ur
ous s
_a éri
_or ient
_ent raî
an che
o sition
_cons é
n elle
_retr ouve
_a f
ite ment
_l’ in
_p aul
_anci enne
_donn é
_gr oupes
_contr ôle
b ilité
_d ieu
_effec tu
di d
o que
_tra ité
er a
_p ot
_r ay
_contin u
_l' ag
o ff
_l ut
_région s
_vale ur
_jusqu' en
r ant
_sty le
_défin i
_dr oite
_p ens
_l'emp ire
o ût
ay e
_di vision
o ch
_offic ielle
ra ges
_b our
b li
en de
_consid ér
_l' une
_mul ti
_f aut
_in v
oi vent
_l'é quipe
_film s
_s ch
_ciném a
_princip ales
_cons ac
_ter min
_jac ques
_la iss
_internation al
_mar que
_la tin
ri es
_p y
_m oi
_r uss
_c élè
ati ves
_c oupe
_l' ordre
ten u
_res p
oc cupation
é on
_é quip
ô ne
_rég ime
_déc is
ur ation
_p ie
si tions
_l'é cole
k e
_v ing
mo ine
b ert
_ne u
_élé ments
r ie
_l'univers ité
_décl ar
_rap p
_activ ités
_asse z
_re mar
_d' at
_mé c
ac tion
_produ its
_rés ist
_h y
ur g
_nouve aux
_ch ac
_n oir
_m ai
ard s
_re g
_contra ire
_ex ist
_princip al
_la c
_can did
_constitu tion
r ou
_mani f
_v oie
u ments
id é
_qu’ il
_tot al
té es
_trans form
_mé trop
ces se
_théor ie
r onnement
_av aient
ê mes
_patri moine
_plut ôt
_p é
_v it
_journ al
_cat ég
igne ment
_œu vres
_t elle
_v end
_sour ce
_re p
_b er
_mar ché
_t end
_l' av
_rom e
aille urs
_poin ts
_resp ons
_c er
lic ation
_améric ain
_h ar
_l anc
œu vre
_for mes
or k
ce l
_maj orité
_inst all
_ense mble
_oc cident
_déf ense
ative ment
_n av
_t a
_cent r
_l'an cien
qu ant
ad es
_for ce
_quar tier
g ent
i a
_ris que
_l'ex p
_typ ologie
_mod èle
t tes
_ u
_se m
_s' ins
_progra mme
_l ieux
_pr endre
tér êt
_pers onne
_l'in ter
_s ac
_surf ace
_préc is
_l'au tre
ti é
_j an
g ue
_compos é
_c'est àdire
_rég uli
_t ém
_é n
ab ilité
_di v
_l' ap
ann ique
ci ence
ul aire
_droit s
riv ée
i res
_par lement
_l ance
ac t
_p le
_éle c
_des c
are r
h e
b all
_princip aux
_in té
_rob ert
_dé ter
d uire
r ite
_fais ant
_l' eau
_réf érence
_v oix
_ob jet
ér o
_dess in
f rance
_four n
_m aire
_ins titu
_ad op
_déci de
_lang ues
_conf l
_d yn
_d' am
_vict oire
_men tion
_jeun es
res si
_inf orm
_popul aire
ai x
_log e
_ch in
_ré un
b ourg
_ch ré
_ad ap
_comp lex
_f ou
_pr ise
_ju in
_id en
_fin ale
_sé par
_pl ac
_thé âtre
_commer ce
_cha î
_mé dec
_compr end
_cr oiss
vi er
i ers
_b es
ai de
_st ra
y mp
ac ité
_celle ci
_for te
_voy age
_ob tient
én ergie
_gé ographie
_provin ce
_ri vi
_g er
qu ence
_ab s
ten ant
_gen re
p p
_f ix
_su isse
me t
_brit annique
_hau te
ici le
_c iv
_ving t
_mus ée
_indi vi
b es
ri ge
è ve
_l’ ar
_rest a
_t aille
_s' en
_j ui
_auc un
_ju illet
_vol ont
_con ditions
ti cle
_ph énom
c ons
é h
l an
asse mbl
a ch
_camp agne
ar es
_qu estion
_r h
_fr ère
v ille
di que
_qu' en
_e aux
_ch ine
_prin cipe
lé ment
_seigne ur
_c ouv
i ens
ganis ation
_vall ée
_d' av
_mus ic
_n ’
_stru cture
_for ces
_dens ité
o bre
o int
_reç oit
fic ie
iv er
_cri tique
_obs erv
_rou ge
_inter pr
_mar ie
_profes sionn
_met tre
gl om
_qu ant
in dre
te mbre
ém ie
_ég l
_acc omp
_hom me
in te
_champion n
_dépar t
al og
_v ites
_ar ri
_mat h
_re tra
_li bre
_top ony
_dé g
_com te
f ique
_f es
_pos te
_pass age
_dém ocra
_sep tembre
_f ron
_co de
_b e
_comm enc
qu ’
_fin anci
_dé ce
_sé cur
_a ir
_v ois
y m
_personn age
_d'or igine
_trans f
c les
ver se
_ac cep
_de mand
_en reg
n ie
om e
_ps y
_di rige
_é lu
_techn ique
_pl ate
_vi ent
_vari ables
_mé m
_mar ch
_no tre
_pr i
_étran g
qu ée
_dép end
_simp le
_év olu
gr ès
_s an
age ment
_res pec
h an
en sion
_la b
_lég isl
_publi que
_consid éré
_g are
_déter min
ort ance
_exp éri
_con cep
_multi p
_supérie ur
ot te
_f o
_auc une
ag er
_actu elle
_l'un ion
_moi tié
_char ge
_lors qu'
_per mis
_internation ale
_l' ass
er res
_prote ction
_n aissance
_f é
_r ur
a illes
_esp agn
r il
_aff ir
s on
_m assi
est re
_regr oupe
a ment
i ment
_lig nes
_di rig
_stat ut
_pres que
_d oivent
as e
_d' an
_v ra
_l’ h
_bi ographie
_règ ne
_sant é
_l'h omme
_atte int
_comm is
_v in
_fes tiv
_publi é
_quali fi
_g estion
_diff ic
_l à
_dist ribu
_imp os
ô me
_anci ens
_n or
_sor tie
_g az
_mod erne
ct ures
_t el
_au près
_s port
_sor ti
_mont re
os c
_essenti ellement
_l ond
ve ur
_utilis ée
_mich el
_an ne
_n at
ne ments
_l ois
_sec teur
_nom s
te x
_s oi
on ique
_appar aît
o k
_parti s
u tion
_représ ente
_cons omm
_b al
_o ct
_meur t
and re
on es
or de
_m as
_derni ers
_v érit
_d'a près
_phili ppe
_ép ouse
_qu alité
_ref us
tel l
_inf érie
_pal ais
c teur
_déce mbre
_ann once
_or g
_ab and
vi ennent
_jan vier
glom ération
_tech niques
_déc rit
_ou til
_a mi
_m and
ét ait
è les
_v ir
_parti es
_bi bli
_aut or
ar t
_s pect
_rel ie
ace ment
_fo ot
_s tu
_rel ations
m ine
qu is
_mo de
ne ur
_b o
_b assin
_entrepr ises
_ma xim
_empl oy
ouver te
ert es
_cent rale
_pro tég
_sp or
qu ête
aly se
_re li
_che min
_l'é p
alis me
_sou tien
_p én
aiss ent
t or
_cond am
_fr ont
ori ent
ar ch
_permett ent
ad a
ti ce
ul ture
_constru it
_comm ande
_dis pose
_col on
r ont
a mp
_par ois
ac c
_l' app
_cour ant
g ique
_tex te
n aire
_prin ce
_vites se
_peti ts
_regr oup
_h ér
f e
_h u
_st ade
_ph ysique
ran d
_prop ose
u té
_min ist
_comp é
_maj e
_n ob
res se
_sécur ité
_n ic
_cré ée
ti ne
jec tif
_hen ri
onn es
_prog ressi
_l' id
util ise
_f usion
ti enne
_ins tru
_cal cul
_s it
_ra dio
_ch ris
ri r
_cir cons
ê tes
_indus trie
_pro céd
_sec r
_r atta
_fon ctions
ces sion
_l' us
_di min
_soci al
è ge
_appel ée
_for êts
isse ments
_cert ain
_peup le
le magne
_sour ces
au de
_b onne
enti el
ment ation
_my th
_ress ort
_l' im
è que
_puiss ance
_ î
_prob ablement
_h er
l ant
_pour rait
_deven u
quel s
_comp t
_y ork
_parti cipe
in ation
_mil itaires
_d an
_comp ar
_jusqu' au
_répar tition
_v as
m ain
_di pl
_l and
è tre
_qu' à
iv al
_transport s
_améric aine
_mé dic
_long temps
ê que
pr ise
_mis sion
ci er
m m
_t ur
_ch oix
_l' âge
_lu mi
a k
tis se
_commun ication
_constitu e
_att ribu
_carac tère
_m ol
_cont ribu
c te
_personn ages
_large ment
_ch an
d er
_l'ob jet
_f it
_sit ue
_dis pos
_i r
_coll ab
_chi ff
os se
_sol d
_op éra
_festiv al
_s én
le t
_par all
_marqu ée
_direc tement
_conf ir
_sav oir
_urb aine
ouver ture
_mati ère
_in dépend
_princip ale
_résult ats
_ol ymp
_change ment
_d' entre
_p ub
utilis ation
_classi que
é rer
_divers es
_w e
_cham bre
_pr on
_célè bre
_nature lle
_l'emp ereur
_c œur
_ter rain
_voi es
_d on
ç ant
_m ac
_h ors
_qu éb
ap tis
_nécess aire
_r o
h i
ô tel
_dou ble
_manif est
che c
_championn at
_im m
_étu de
_ter r
_m asse
_v oire
a ie
_s ouver
_n ap
_pass é
_b en
_rivi ère
ve mbre
_de l
_psy ch
_s ar
au g
tr uire
m ie
in d
_sou h
_con temp
_contemp or
_col lè
_l'al bum
_deven ir
id es
_métrop ole
_he ures
b as
ag é
_pré cip
_no vembre
_l' as
_fig ure
_foot ball
_tex tes
ri ch
ond issement
_pi èces
_scien ces
_k il
_rés erv
év rier
_r ang
it ations
_m au
ti me
_op pos
_n uit
_rec ons
_conn aît
_loc ale
_ri ch
_oct obre
_tra itement
ent rée
_cour onne
_b ande
_ob lig
_math ém
_meille ur
_pr im
_donn er
_prop or
an ne
_cr ise
_mari age
or té
_cir cul
_rel ativement
_é d
_n avi
_cô te
_pro xim
_comp osition
_vale urs
_pro cess
c ée
omm un
ati s
_vi a
_c av
_aut om
_r endre
_diff us
o ine
_réalis é
_roy al
_pr ol
_inter ne
iel s
_pap e
_oc é
ar ité
_proxim ité
_f évrier
_î les
s us
_coule ur
lè mes
_télé vision
or é
_direc teur
_hau teur
ri m
_ &
_lim ite
_process us
m atique
_comp lè
_ utilise
ang leterre
_let tres
_per d
in é
_l' es
_par ce
ê che
_disp oni
_joue urs
tru ction
_ ?
_pr esse
_prof esse
tif ic
_lond res
on te
_de me
_b ern
_a mb
_cher che
ë l
ite ur
lè ve
_su it
_l'ab b
_naturel s
_g ard
_b ri
_l oire
_consid éra
du ite
ang er
che v
_lib er
_expl oit
_l'ar r
_au teurs
_re m
_p oi
c ent
_p aix
_l'oc cupation
_so vi
_bel gique
_con v
tif i
lu ence
_mé l
oci ation
_relig ie
_mo b
_év é
e ux
_en ti
_m ic
_j ard
_ma ch
_siè cle
_dis position
_ch r
_por tu
_jus qu’
i ble
_s' il
it ation
duc ation
_pub lie
_m ieux
_élec tr
_s ites
tex te
_allemand s
_clim ats
_doc ument
ose ph
_prot est
_b ure
_env oy
_l'imp ortance
_di vis
tu de
_sur n
_prob lèmes
_r am
_tém oig
_conn ue
_stra tég
n ant
_derni ères
_pré par
_ !
_concern ant
l us
os p
_ter mes
_cont en
ut es
m age
_administ ration
_p il
_v ain
_chaî ne
_caractéris tiques
_trib un
onne ur
_utilis és
_p ou
_rec ord
pr it
ar de
_s' app
_longue ur
_dén om
_su ivi
_ex er
oi le
_sé lection
_remp orte
_v u
_mouve ments
_quel que
_se ine
_l oin
_républi c
_t est
_b omb
_f isc
c ommun
ital ie
_ac cessi
_in t
_m ur
op ort
_dur ée
_e mb
abli r
om é
_accomp agn
_sain te
_soci ale
iss ant
_s ang
_rel ation
_com ité
assembl ée
_en c
_a oût
dus trie
_p au
_can ada
_ép is
tit ul
_syst èmes
_chap elle
_l’ un
_av ril
_car tes
_trava ill
_s te
les s
minist ration
_ar chite
_sal le
_prob l
_probl ème
ill on
o ï
a ve
_table au
_prov o
o rer
_pr ati
_l' aide
_in titul
on ge
yp oth
ra ine
al ise
_signi fie
_commis sion
_com ment
_mont agne
_contin ue
_ren for
_for tement
_l’ ex
ut és
_dou te
_dés igne
es te
_re ce
_mat érie
_activ ité
_prof it
_for êt
_ch asse
_rép ond
_l'in f
_territ ori
ist ence
pl oit
_f re
ni es
_littéra ture
_mété or
_scientif ique
er ver
_v olu
_d' ailleurs
se e
_d oll
_bibli oth
_s ensi
_c op
_b le
_kil om
_cert aine
tr ême
_indivi du
lé g
_an ti
_russ ie
es ti
_améric ains
_lig ue
_liv res
_déta ill
_liber té
y s
ort h
_élé ment
_ju ge
ph ère
_norm and
_v ég
_région ales
ê tres
_lumi ère
_chin ois
vi ron
_d' aut
_chac un
an tin
_se x
_cathol ique
_g i
_ass ure
_brit an
_pass er
que lles
_mot s
_relig ieux
_let tre
_ti tres
ol ue
_att est
d in
_h a
ur ée
_rom ain
_m ass
_maî tre
_représent ant
_s ing
_réf ér
_classi fication
_jus tice
ch ée
_compr is
_propor tion
_con ç
_département al
enti elle
_fer me
ali er
_p ic
_n' y
_gl ob
_centr al
_ré alité
_l'in térieur
_ali ment
onc é
_commun ale
ét ation
_britan niques
_l'oc casion
_tr ouver
_f au
_ii i
_e d
_a it
_a lex
_can al
_fav or
_méth ode
_confl it
_m ad
_peut être
_a vi
_comp ort
_d ite
_sc én
_pl a
_mon uments
_fé min
_mo difi
_con duit
_mal ad
uc lé
og ne
_n' ont
_dé tru
d uis
_tr ou
_import ants
tra ction
_cap acité
_rom aine
_croiss ance
_pro ven
ad émie
_t elles
_éc oles
_cré er
_d’ au
ou e
e ff
_diff icile
_e l
ér oport
_mais ons
_imp éri
ci enne
_t or
_conn aissance
_super ficie
_pour tant
li min
_pl antes
_par le
_chans on
_exp os
_v an
_gu ill
ci le
_se mbl
ot s
_ris ques
_ser ont
rit ure
r ées
ten tion
_loge ments
_relig ion
_repr end
_pres sion
onn é
_ann uelle
_qu o
te lle
_portu g
f ort
_contin ent
_s cience
_cri tiques
_commun aut
t ères
_b less
_lim it
_nouv el
_t ar
_neu f
_dé rou
_g agn
_mat éri
_décis ion
é tiques
_in cl
g ée
_puis que
_qu' on
_ =
_alle mande
_français es
_l' entre
c on
tis s
_re ti
_décl are
_vérit able
_con grès
_maj or
_culture l
_l' énergie
_comp orte
_mort s
_syn dic
_b ran
omé trie
_in tro
ti le
_d' ob
_n uclé
_royaume uni
_g raph
iv es
_aut ant
_t ours
_s ole
_s igne
_v idé
_conc ent
ori es
_ ul
_tradition n
_n os
_f u
_gr os
_phénom ène
_mil ieux
_org an
_pie d
_con texte
_europé en
_pouv ant
_jou eur
_résist ance
_constitu é
_déc ouverte
ter n
_b ud
_cr o
_bâti ments
_ri ches
_précip itations
_m ètres
te ments
_temp le
ul p
_esp aces
an ie
_cr ois
_propri été
_civ il
_di m
_sold ats
illi am
_roy ale
_j oseph
e aux
_h é
_dis cip
_l'esp ace
_r ien
_réalis ée
_ve ut
_éc ole
_ ordre
ti ens
_mes s
_défin ition
_l'e ff
c teurs
_con ver
_sc ulp
_cô tés
_pi èce
_ch ron
_effet s
_v éh
ag nes
at h
ou re
_cul te
_v oul
_d avi
yp te
_repr ises
_japon ais
_officielle ment
_in d
u les
is tr
_r usse
_sup port
f rique
ér ée
_popul ations
_éc riv
_anim aux
_mondi al
_philosoph ie
_aff aires
_d' esp
i ce
_ch ant
_véh ic
ê té
_st and
_économ ie
el à
és ie
_histor iques
_sp ati
_r are
_lut te
_ag ri
_l'é lection
_j uri
_comp ét
_dyn as
_doll ars
_ser v
c er
ri ques
tr al
_soi ent
mi ques
_w illiam
_s orte
ur r
_éc l
a ff
_malad ie
_l' aire
_quat ri
_vis ite
_mont ré
_quit te
_l'ac c
_n our
_sou ff
_public s
_c ra
_l'or ganisation
_sole il
_tot ale
t all
_c os
_actu ellement
_fr oi
_arri ve
_b us
le y
_dev ait
c é
_ancien nes
_réguli èrement
_objet s
_ph ase
_quatri ème
_supérie ure
_a jou
b lement
_gar de
_c ivi
ri ct
_kilom ètres
_s' y
f ant
di en
_re ine
_con vention
c tes
j or
_poli ce
_contraire ment
ag ue
_pro ches
_l'a ff
_bret agne
_v ar
_tou l
_permet tre
_pour s
_pours ui
_mes ures
_com té
_fut ur
_au des
alis é
_gén ér
_mau v
ony me
_fond ée
_moy ens
_ré uss
in aire
_rej oint
_l'ar t
_peti tes
_mém oire
_l'id ée
_professe ur
_cr oix
_ress our
ol as
_fab ric
i i
_qu in
_dist ance
_municip al
ur ant
_sim il
_alle magne
_der rière
_tour née
_phot os
_béné fi
_aéri ennes
v al
_im médi
_ly on
_parois se
qu ences
oph e
_p ouss
_projet s
_chris ti
_geor ges
_tempéra tures
_n u
_re d
_davi d
k i
_bas se
_c ab
_fle uve
_ti ent
_fron tière
l ande
o iles
_retr ouv
_coule urs
_bâti ment
_d' ass
_s am
_prop res
_t re
a x
_suiv antes
land ais
s es
_il lus
n és
tu elle
_agri cole
_br és
_loc aux
é ch
_québ ec
n is
_cel lu
_progressi vement
_gr ille
_complex e
_topony mie
_élev é
and es
_appar tient
_b ul
_compos ée
_mus ul
_d' imp
_quo ti
_fam illes
_guill aume
ur a
_consomm ation
_v ont
_f id
_import antes
_m ine
_spect ac
_symb ol
_ou ver
b on
ig e
_l’ év
_ch ute
_ar mée
_volont é
_b ra
_commun al
_s' in
_ex tra
_lang age
_dé li
_c ali
_l'e urope
_gra v
_des cription
_l'in see
è tes
térie ure
_b re
_mon ument
_a ction
g t
_l'ar rivée
tien nent
_désign er
_tr ouvent
_matérie l
for me
_al g
or ie
_app are
ul ation
_consid ère
_m ex
_cr ée
ma jor
_b ras
_in aug
_ph ysi
_a th
_scientif iques
_oc cupation
_seul s
_espagn ol
_in tég
_rap pr
_océ anique
t ée
_contr ô
_au d
ri che
ploit ation
_jou er
en ir
_économ iques
_l'an cienne
_char gé
ous se
_con tient
_jeun esse
_sud est
_appel és
olog ne
_sub s
j out
_réf orme
_bure au
_th om
l ée
_l'é g
_ger man
_l' assemblée
_l' utilisation
_log ic
_ar mes
_s enti
_v oc
_a ire
_résult at
_d' o
_contra t
_rec ue
_desc end
ab it
_surn om
_cour se
_fond ation
_rev anche
_ +
_d'en viron
_m os
_de mi
ie ur
_d'e urope
fi er
_c élé
. c
_prév oit
_g ui
_fa veur
_fr ères
_cl aude
b y
_audes sus
_conf i
o di
_é m
_n ’est
_par f
gu er
_d'au tre
_con ception
_les quels
tis me
_poss éd
_man que
_mar ine
_per form
_pass ant
av es
_ri che
_concep t
_sud ouest
form ation
_off re
_brés il
ol d
_loc al
_d' ad
_particip ation
_hum aine
ch és
_mo di
_ex cl
_re vient
r op
_dis po
_ital ie
_ap port
cu le
cesse ur
vi ronnement
n aires
_cul tiv
_distribu tion
p es
_ar riv
_fon de
_f ant
ç a
_n ations
_ri ve
_e au
_disc ours
_const at
_m êmes
_off ici
_no tion
_per man
_no te
_d' ag
_i v
_s oir
_prof ond
_mand at
_th er
_s ert
_v ig
_comp l
_sau f
ti ères
_mo teur
v oir
_secr étaire
_l'in dustrie
_suff is
qu és
_se ction
_ex écu
in i
_remp ort
n ov
v ie
_ré alise
_exp lique
_d'av oir
_conc l
_l ing
_enti èrement
_ter mine
_cit oy
_propri étés
_r ock
dépend ance
_ent our
_cour t
_urb anisme
_déc ret
_compt ait
_re mont
_vidé o
ér ant
_reç u
at es
_in ves
er nes
_ital ien
titu t
_s'ét end
_c id
_conc erne
_pe ine
_f ête
_chr ist
_j .c
_sc ol
_march and
_jus te
_hy dr
_ar ts
_éc ologique
_e ut
_représent ation
_fam ili
_tribun al
_unique ment
_somme t
_l'al lemagne
vi d
_m agn
_élect or
_dens es
_cons truire
_c re
ati fs
_mar tin
ar ts
_dé t
_am éli
u ves
ch ant
_r os
_méd iter
_remplac é
_compé tition
ab et
emp l
_num éro
ra mi
_élect rique
_py rami
_h i
_plu vi
_l ie
_règ les
_ouv ert
én agement
_b ass
_l'ass ociation
_nap ol
_ar g
_l ux
_déf aite
_min im
_ét ap
_dom aines
ric ulture
_réalis er
avant age
_él us
_envi ronnement
_ar ticle
t ation
ar que
_ca us
ri ers
éd ie
_méditer ran
r un
_rich ard
_conc ert
_l’ an
_différ ence
_influ ence
h a
_rur ale
_hab itu
_recher ches
_conse ill
ot es
di ction
m os
_diff usion
_rés eaux
li quer
ge t
ar m
_h ong
c k
_d'a ff
ul té
_ouv rage
_v o
_thom as
_form er
_d en
_la isse
_sau v
_colle ction
_aut oris
_artis tes
g ne
_nord ouest
_d û
_mété o
oy er
_jui fs
po ques
_é poques
_c és
_dé riv
_port ant
er se
_p en
_organis ation
_ins crit
_iss u
_d os
an o
_m it
_aug us
_siè cles
_deven ue
_geor ge
_minist ère
_l'ex istence
_collè ge
_d' ét
_nord est
_rej oin
_prof onde
_l'ac adémie
ô p
_l ic
_dev rait
che ment
_déc en
_pr ét
_i dé
d a
end u
_r aisons
lan tique
_dra pe
_cath éd
_égl ise
_par ents
_indus tr
_n ul
ten ue
_dém ont
î tre
_plate au
_accue ille
_d' app
_l'abb aye
cu pe
us si
_ar ch
é dition
_consé quence
_simp lement
y l
_l'au teur
_change ments
_g all
_dis s
_s l
_ressour ces
_b elle
_cons iste
_tra in
ult és
_évé nements
_l'ar chite
is é
_arm ées
ra ins
_dire ct
_eff ic
_civi le
_utilis ant
_inté gr
_comp arer
_oc casion
_constru ite
_ceux ci
_région al
_par vient
t rice
_bl oc
_mag az
_dist rict
_empl oi
_fais ait
h am
_distin gue
ab il
_g am
_pro duire
_pouv ait
_sa tell
_priv il
_co op
_par am
_mét al
_qu as
_jam es
_fond ament
alis ée
_capit aine
_l' œuvre
_m â
_f un
_l'év olution
_équ ival
_inférie ur
as c
_at ti
_mod èles
_bi ens
_détaill ée
_m oul
_cid ess
_acc us
_esp ace
_sem aines
_gr en
_fort es
anc er
_v ote
_i ci
_sovi étique
qu ité
_b u
_biblioth èque
_chans ons
_rec ense
_dynas tie
is er
_candid at
_dém ographie
_équip es
_c ér
_part age
_po si
_autor ités
p t
_tr ente
_urb anis
_classe ment
_poi ds
_j a
l am
_l' air
_napol éon
_d o
ven ir
on se
_inter commun
_st ock
_mar iti
_a ires
_appr oche
_accessi bles
_ins pi
_l'ab s
_personn el
_ar t
_nég oci
_cor ine
_europé ens
_m én
_b out
u er
_ch au
_ er
_fav oris
_rom ains
_l'ac tion
_dou ze
_can adi
_soci étés
_considér ée
_nic olas
_sub st
_nob les
_conc urr
_tomb e
i ère
o ins
_or igine
_fonction nement
_fond é
_bes oin
_enreg istr
ar a
o z
è dent
_c ime
_l'éc onomie
_ce ci
_début s
_t ente
_di z
_suc cessi
_co ver
_v ieux
_vas te
_pays bas
_car b
_gouver neur
_qu anti
_quanti té
_suiv ants
_coup le
_tra duit
f t
ci de
_é dition
_d' ins
_l'é ch
_l' ess
_dép ass
_déc or
_bern ard
om mes
_massi f
_actu el
_gu erres
_ren ouv
_sy mp
_l' enc
as tique
it ant
ch ar
aire ment
_qu' au
_li aison
_b il
g én
_n oire
c al
_deme ure
par avant
_r ares
ti mes
_ou est
_dé di
_nav ig
_n oy
_ra dic
_am is
_d’au tres
_c assin
uri ce
_remar qu
_l'un ité
_for ment
ti g
_h ame
_bl anche
ox y
_quar tiers
ér és
ypoth èse
crip tions
_un ité
_cy cle
_b ate
_par ten
oph ysique
_h oll
_indi que
_syn th
lic ations
_min utes
_j és
_p an
_p â
_meille ure
_viv ant
_re b
_marqu é
_commun iste
de france
_év o
_dé v
_fré quent
l ent
ap par
_d'at traction
_l'é té
ir ent
_cér ém
_fl or
_p ati
_id ées
_d'ar t
_respec tivement
_b ac
g o
_fran ch
_vill ages
_lib ération
_op ération
_m ig
_météo france
_feu illes
_év olution
_météor ologique
_souh ait
_é mis
_d’ occupation
m ond
_utilis ées
_nom bres
_féd ération
_supp lément
_pens ée
eur os
_p oiss
_fond s
_iss us
_pris onn
_normand ie
_ré di
_d'o ù
_v ent
_con dition
_c uis
oise aux
_provin ces
_ti ers
ist or
ou x
_l'é qu
_cathéd rale
as tr
h ors
_c ui
arch ie
_n' av
_p êche
_l or
_l'arr ondissement
_main tenant
_aud elà
ari o
_ex ception
_é limin
_ét abli
_cassin i
ten sion
_vari ations
_dev int
_emp ire
_sy s
ou te
_per du
_opéra tions
_chev al
_au paravant
ét aires
_célé b
_conc ours
_norm ale
_and ré
_commerci al
_n ée
_repr o
_r y
médi aire
use ment
_v on
_sain ts
_réalis ation
g ar
_fa ç
ens es
met tre
_ouv rages
_ob tenir
d d
_navi res
x es
_fra g
_v ente
_prin temps
ot t
û te
_fait s
_b y
_loc ales
_éch elles
_sign al
_ref use
_as si
_symb ole
er ge
_ab ou
_orig ines
_dis que
_s in
or g
_possi bilité
_g o
_ar ché
_soci aliste
_tour isme
_jard in
_r oche
_m onn
_bi ophysique
_form é
_pro cès
_cont act
g on
_pluvi ométrie
_arr êté
cep ti
_fl otte
_ île
ru p
_pl at
_égl ises
_al bert
_dép utés
_mer c
_développ er
_vis ion
_v ert
_l’ ég
_di ver
_ban que
l ieu
_spéci fique
_m ains
_cés ar
_l éon
_public ation
ér ité
_développ é
or tement
_médi év
_r iv
_chap it
_hér os
_pour su
_repr ise
_cl c
_pé tr
_lux e
_qu an
_app elle
_dép uté
_pr ai
_tr ône
_l’ état
_con j
re ment
_rest ent
_l’év olution
_ré ac
_ré action
pi erre
_un ités
_sé p
_écrit s
ct or
ra ient
_décl in
_stand ard
_es c
_rev ue
ap pr
_initi alement
t y
_lit tor
_rév ol
ang es
_maje ure
_gu it
ro vi
_fer rovi
_par ler
_major itaire
_ly cée
_intitul é
_enreg istre
_les quelles
og ènes
al d
_nature lles
_form ule
_mod ernes
_fle urs
_inté ress
_présid entielle
_l ille
_d'état major
tu el
erg é
_l'emp l
lu ent
_méth odes
ali ers
_r ot
_l'é tude
_pro duis
_conn aiss
_év olue
_af rique
_a ctions
_l' ign
_dém ar
_pa ci
ce au
g és
as h
_prés ents
_is ol
_priv ée
vi end
l a
_esp èce
_f us
_o tt
_t ôt
_ar b
ue ur
_t al
_trav aille
_l ien
u its
_fabric ation
_atte indre
rib ue
_de hors
tu e
è lement
_respons able
_s il
_sport s
_di am
lé ans
_r asse
_l'ins titut
_tend ance
itu de
_pl ante
enti té
_is ra
_l'ap par
r ons
_us age
_suc c
_réc omp
_l'inf luence
_ti t
_l’ occupation
i ze
_rejoin dre
_hist ori
_l'ad ministration
ois eau
_prai ries
_franc is
_lég ende
_b ron
_l' ang
_su g
_etc .
_an c
_établ issements
ut ation
_circons cription
_ré cup
ti ème
_mar se
_ple in
_ob tenu
_g ré
_match s
_mo des
_r ois
ras tru
_reven us
_ma urice
_l'entre prise
_excl us
_car l
_réc it
_club s
_présid ence
n y
_associ ation
p el
_pol y
_ orth
_m ille
tic les
_s' op
_th ème
_a ch
_mathém atiques
_tourn oi
ograph iques
_an aly
_en vis
_cant ons
_v ienne
éri es
_comb in
_caractér ise
_alli és
_am érique
fic ations
_soci ales
_ling uis
_l'é l
ag ée
_cam b
tisse ment
_or b
_sp ir
cl am
_cime tière
_resta uration
_accue illi
_r ig
_ q
_fil les
_sem aine
_communaut és
_esti me
b i
_volu me
_pein tre
_cin qui
qu ie
_port es
at t
_constitu ent
_offic iel
_médec ine
_lu c
_cul tures
ul te
_fa ci
_franc s
_établ ie
ende main
ri re
s er
ex p
lè ves
ge ois
f iques
til l
_lég èrement
_hom mage
ol i
_g aul
_s œur
_réalis ateur
_stu dio
_commande ment
_en tier
_magaz ine
_hum ain
_fl am
_affir me
_ple ine
_drape au
_déc oup
onn ée
_l'us age
_réf ug
_pris on
_ég yp
_reconn aissance
_é ditions
v in
_li és
_af ric
m êmes
_poss es
_ter rains
_conseill ers
_sus cepti
c ité
_fin it
_ju li
qu ées
_bud get
_ren é
_au teur
ili bre
_d’ in
_l in
_jusqu’ à
_occident ale
_conn us
le ct
en tin
_disponi ble
m it
j our
_é vent
_b aptis
_correspond ant
ri d
_p ér
_div in
_l'im age
_l une
_peup les
ôp ital
_ang leterre
_app li
_l endemain
_rec ouv
om es
ler ie
_l é
_lorsqu' il
d om
_h an
_ti r
_emp run
_v ite
_d' ann
_hé tér
_maxim um
_en ne
_personn alités
og ène
en e
a il
_ti s
al istes
_nom mée
ra t
_l’ or
_comp ose
_médi as
air ie
_l'ag riculture
_cinqui ème
w ay
end ue
_br un
_elle même
_pr atiques
telle c
oir s
_discip l
_in dé
_d'in térêt
lé gu
_rou tes
_mar c
_cr oy
di ci
_l o
_p av
_conn aître
_ob jectif
_class es
_doc uments
_év iter
_mar che
_n' était
_pein ture
ist an
is tique
_con ne
_sol ution
_ex trême
_tot alement
ec ture
_ver sions
_a che
ag ers
_dé l
_qu es
ra d
_enf ant
_clim atique
_diffic ultés
_aff ec
ne y
_lim ites
_n az
_d'ac c
_comp ortement
_fré qu
dr oit
_b all
_gé ographique
ô les
_ber lin
_cal end
_pl aine
_pouvoir s
f a
_m ons
_co ût
_pr ennent
_al tern
_règ le
_tra fic
_sé jour
_littéra ire
_l is
_correspond ent
_princip es
_dyn am
ou n
_ad j
_défini tivement
u els
_j ér
_religie use
m on
_nom me
_suc cession
_relie f
ur y
_généra ux
_poin te
a tement
in tes
_fab ri
_arr êt
_dé te
_entrepr ise
_exp ri
olog ue
_ju dici
b er
_prom o
_r uis
_d' euros
_dat ant
_stru ctures
alis és
_per te
_gr èce
_parc ours
_puis qu'
_hau tes
_influ enc
_clim atiques
_li é
_interne t
_sou lig
_ju me
_vi ce
_conf érence
_gu y
alog ue
b l
_che fs
_av anc
_soci aux
_inform ations
_d'in ter
_gén ération
_né er
_poursu it
_st ations
_qualifi é
_d'é v
_jour née
_sur ve
_fil i
_all ant
ti les
_inspi ré
_administra tive
_dé r
_vég ét
_sén at
_publi ques
_plan ète
_utilis er
_ch ante
_industrie lle
_b os
_préc ise
_pro c
_ins p
_utilis ent
_s at
as t
_y eux
_d ot
_oc cupe
_un ion
_ju les
